<unk>	0
<s>	0
</s>	0
.	-2.66162
,	-2.66372
▁не	-3.50423
▁на	-3.98324
▁и	-4.10565
▁в	-4.42899
!	-4.58266
▁очень	-4.7158
▁	-4.73648
▁но	-4.93903
▁размер	-4.99886
▁с	-5.07614
▁что	-5.14789
▁как	-5.26253
а	-5.33058
▁по	-5.34125
▁за	-5.34516
-	-5.35064
▁деньги	-5.47739
▁,	-5.50328
▁так	-5.54016
е	-5.5656
▁я	-5.63043
▁а	-5.64351
▁товар	-5.71513
▁продавец	-5.75389
▁качество	-5.78835
▁На	-5.79411
▁все	-5.79584
▁это	-5.8489
▁-	-5.86926
▁спор	-5.91519
и	-5.91676
)	-5.96106
▁фото	-6.03003
▁мне	-6.0388
▁вернули	-6.03913
▁то	-6.04607
▁соответствует	-6.04833
▁быстро	-6.04939
▁у	-6.05508
▁до	-6.06931
▁Не	-6.08086
▁рост	-6.10744
▁В	-6.11509
▁хорошо	-6.11515
▁к	-6.13933
...	-6.14161
!!!	-6.16033
▁Очень	-6.17309
▁заказ	-6.17567
▁пришел	-6.19196
▁2	-6.23394
▁только	-6.23816
▁ткань	-6.25143
но	-6.2529
▁больше	-6.26357
й	-6.26566
▁нет	-6.26621
▁продавца	-6.27306
▁пришёл	-6.28512
▁доставка	-6.30479
▁раз	-6.33761
▁заказала	-6.33877
▁платье	-6.34086
▁Качество	-6.34357
▁(	-6.36305
▁Товар	-6.38176
▁месяца	-6.40597
▁пришла	-6.42083
▁бы	-6.42237
▁М	-6.42557
▁цвет	-6.43479
▁.	-6.43812
▁для	-6.44253
▁было	-6.45947
▁довольна	-6.46101
м	-6.46303
▁Продавец	-6.47814
▁даже	-6.50878
▁3	-6.51175
▁L	-6.56111
▁от	-6.56731
▁нитки	-6.58177
▁продавцу	-6.58517
▁недели	-6.58655
▁синтетика	-6.59117
▁Но	-6.59347
х	-6.59461
▁Заказ	-6.59965
▁рекомендую	-6.6096
▁торчат	-6.61312
▁хорошее	-6.61382
▁из	-6.62673
▁получила	-6.63531
▁см	-6.63977
▁размеру	-6.64404
у	-6.64461
▁просто	-6.64761
▁дней	-6.65694
▁С	-6.65809
▁быстрая	-6.66544
▁спасибо	-6.67446
▁рукава	-6.68179
то	-6.68733
▁долго	-6.69784
▁Доставка	-6.69886
▁пришло	-6.70336
▁меня	-6.72615
▁он	-6.73618
▁Размер	-6.74079
▁отлично	-6.75129
я	-6.77213
о	-6.77424
▁будет	-6.77694
▁Я	-6.78201
▁после	-6.78453
▁Спасибо	-6.78928
▁можно	-6.79015
▁носить	-6.79047
▁немного	-6.8159
на	-6.81713
▁заказывала	-6.82472
▁же	-6.83059
▁денег	-6.83164
в	-6.83539
▁вообще	-6.83746
▁при	-6.83947
▁картинке	-6.84252
▁мой	-6.84788
▁супер	-6.86034
▁уже	-6.8735
▁буду	-6.88653
▁ещё	-6.88992
▁чем	-6.89023
(	-6.91096
▁S	-6.91368
▁вернул	-6.91973
▁материал	-6.92701
▁телу	-6.92968
▁этого	-6.94008
▁советую	-6.98499
▁без	-6.98659
▁ни	-7.00599
▁приятная	-7.00818
▁размера	-7.01561
▁По	-7.02437
▁если	-7.03796
▁совсем	-7.03867
▁швы	-7.04487
не	-7.05555
▁месяц	-7.06046
▁Ткань	-7.07254
▁короткие	-7.07344
▁тонкая	-7.08065
▁его	-7.08359
▁И	-7.08417
▁Платье	-7.09562
ой	-7.09852
ы	-7.09957
▁кофта	-7.10614
▁груди	-7.11057
▁еще	-7.12814
го	-7.1312
р	-7.13661
▁отслеживался	-7.13677
▁она	-7.13745
▁сильно	-7.14278
▁меньше	-7.14992
:	-7.15218
▁хорошая	-7.15769
▁ничего	-7.15883
▁качества	-7.17785
▁идеально	-7.18013
▁описанию	-7.18501
▁был	-7.18644
▁заказывать	-7.20926
▁тоже	-7.22016
ая	-7.2202
▁чуть	-7.24008
▁хотя	-7.24182
▁смотрится	-7.24504
▁они	-7.24539
▁под	-7.24846
▁пришли	-7.25706
▁Заказала	-7.25723
▁открыла	-7.26055
▁А	-7.26125
▁взяла	-7.2627
▁через	-7.26794
▁Цвет	-7.27055
▁XL	-7.28434
к	-7.2844
▁s	-7.29044
ую	-7.29175
т	-7.29676
▁товара	-7.29773
▁44	-7.30593
▁ждала	-7.30988
▁продавцом	-7.31247
▁такой	-7.32334
▁4	-7.32621
▁итоге	-7.32672
▁подошло	-7.32805
▁есть	-7.33075
▁плохо	-7.33244
▁понравилось	-7.33623
▁целом	-7.33858
▁5	-7.34419
▁трек	-7.35466
▁цвета	-7.36129
ом	-7.36282
▁46	-7.36616
▁брала	-7.36644
▁свой	-7.3718
▁подошел	-7.38799
▁стоит	-7.39156
▁Все	-7.39593
▁параметры	-7.39683
▁была	-7.40371
▁посылка	-7.40728
▁отправил	-7.4079
▁или	-7.40818
!!!!	-7.41254
что	-7.42021
▁хороший	-7.42145
▁выглядит	-7.42168
▁о	-7.42643
▁ткани	-7.43179
▁лучше	-7.43195
▁свитер	-7.43614
за	-7.43801
▁Заказывала	-7.44582
с	-7.4487
▁вот	-7.44965
▁надо	-7.45245
▁куртка	-7.45489
▁подошёл	-7.46265
▁всё	-7.47124
▁!	-7.47178
▁запах	-7.47198
▁такие	-7.47476
▁приятный	-7.48234
Ð	-7.49821
▁брать	-7.50014
▁К	-7.50026
▁талии	-7.50294
▁стирки	-7.50856
▁конечно	-7.51208
▁"	-7.52354
▁the	-7.5345
▁П	-7.54153
▁общем	-7.54635
▁два	-7.54807
▁понравилась	-7.55081
▁себе	-7.55834
▁маленький	-7.56135
▁просвечивает	-7.56571
▁большой	-7.56598
▁где	-7.57191
).	-7.57496
▁длина	-7.58012
▁сразу	-7.58017
▁Деньги	-7.58062
см	-7.58439
▁видно	-7.58544
▁нормально	-7.59001
▁м	-7.59023
▁отличное	-7.59607
ся	-7.59959
▁сидит	-7.60129
▁другой	-7.60278
▁этот	-7.60989
▁ужасно	-7.6223
▁42	-7.62584
▁того	-7.6274
ю	-7.63091
▁такую	-7.6368
▁Это	-7.65149
▁более	-7.65588
▁знаю	-7.65766
▁запаха	-7.65971
▁размером	-7.65985
▁48	-7.66311
▁почти	-7.66425
▁ровные	-7.67088
▁вещь	-7.67209
▁За	-7.67562
▁т	-7.67934
▁оказался	-7.68096
▁вернуть	-7.68838
▁Открыл	-7.69109
ть	-7.69139
▁этом	-7.69444
▁подарок	-7.70141
▁когда	-7.70762
▁тянется	-7.70877
▁Рекомендую	-7.72527
▁рубашка	-7.73114
▁две	-7.7314
▁юбка	-7.74412
▁три	-7.74582
▁штаны	-7.75125
▁цену	-7.75461
очень	-7.75619
!!	-7.75872
▁российский	-7.7603
▁Так	-7.77231
▁мягкая	-7.77358
▁их	-7.77927
▁об	-7.78019
▁Материал	-7.78854
▁жаль	-7.78865
?	-7.7895
▁мало	-7.78979
▁xl	-7.78982
▁аккуратно	-7.79013
▁сожалению	-7.79176
▁10	-7.79674
▁ощупь	-7.79744
▁самый	-7.80179
▁тот	-7.80748
▁такое	-7.81507
▁мои	-7.8256
▁прислали	-7.82781
▁короткая	-7.83069
▁вы	-7.83641
▁один	-7.83645
▁заказа	-7.83835
▁чтобы	-7.84174
▁хорошие	-7.84634
▁качеству	-7.84822
"	-7.84938
▁время	-7.86037
ли	-7.86131
▁плохое	-7.87498
▁ожидала	-7.87503
▁НЕ	-7.88219
▁сама	-7.88786
))	-7.88816
(((	-7.88872
▁второй	-7.89021
▁деле	-7.89115
s	-7.90021
▁вес	-7.901
▁подошла	-7.90618
▁тонкий	-7.90625
▁Куртка	-7.90643
▁О	-7.91007
▁свободно	-7.91627
▁шла	-7.91965
▁поэтому	-7.91998
▁Мне	-7.92334
▁описании	-7.9273
▁ужас	-7.93654
▁оказалась	-7.94281
▁много	-7.94701
▁да	-7.94757
▁слишком	-7.94947
▁другого	-7.95813
▁самом	-7.95981
▁ужасное	-7.9615
▁футболка	-7.96258
▁ли	-7.96369
▁р	-7.96441
▁нужно	-7.96471
▁У	-7.96613
▁звезды	-7.9673
▁дома	-7.97531
▁норм	-7.97685
▁шел	-7.97785
▁день	-7.98227
ый	-7.98548
ки	-7.98919
▁ношу	-7.99142
▁возврат	-7.99458
▁хотела	-7.99475
по	-7.99601
▁Кофта	-7.99737
▁какой	-8.00295
▁ниток	-8.00398
продавец	-8.00678
▁большое	-8.01134
▁первый	-8.01353
▁хлопок	-8.01365
как	-8.01388
▁плотная	-8.016
▁быть	-8.02023
▁может	-8.02709
▁со	-8.02715
▁грудь	-8.02993
▁красивый	-8.03504
▁мягкий	-8.03788
▁думаю	-8.03818
)))	-8.03819
▁ну	-8.04617
л	-8.04816
▁точно	-8.04834
▁50	-8.05392
▁русский	-8.05693
▁джинсы	-8.05706
▁170	-8.05743
▁сшито	-8.05924
▁1	-8.0593
▁будто	-8.06277
▁долгая	-8.06414
▁маломерит	-8.06704
▁эти	-8.06864
▁блузка	-8.06924
▁цена	-8.06975
▁лучшего	-8.07058
ка	-8.07424
ов	-8.07734
▁мал	-8.07786
▁Пришло	-8.08224
▁посылку	-8.08431
▁мала	-8.09311
/	-8.09695
▁доставку	-8.10469
▁рублей	-8.11026
▁были	-8.11382
▁совершенно	-8.11525
▁разочарована	-8.11556
▁них	-8.11659
▁понравился	-8.1178
▁оказалось	-8.11821
▁думала	-8.1188
Ñ	-8.11934
▁Юбка	-8.12054
▁42-44	-8.12653
▁Али	-8.12784
▁Посылка	-8.12942
▁оно	-8.13095
▁месяцев	-8.131
▁размерной	-8.13223
▁рукав	-8.13485
▁села	-8.13704
качество	-8.13812
▁отличная	-8.13902
▁там	-8.13962
▁такая	-8.14371
▁платья	-8.14427
размер	-8.14472
▁заказывайте	-8.14719
▁криво	-8.14803
▁M	-8.15083
▁возвращать	-8.15236
▁про	-8.15259
▁сел	-8.15441
▁is	-8.15813
▁расстроена	-8.16092
ого	-8.16098
▁магазине	-8.16294
▁маленькая	-8.16338
▁отправили	-8.16702
▁короче	-8.16953
▁выше	-8.16995
▁могу	-8.1707
▁заказом	-8.17958
▁эту	-8.17988
▁полностью	-8.18567
▁сзади	-8.18583
▁хоть	-8.18921
▁ее	-8.19274
▁часть	-8.19394
▁отзывы	-8.19434
▁общалась	-8.19683
▁Рукава	-8.19806
ная	-8.20063
▁Если	-8.20608
▁приятно	-8.20745
▁При	-8.20891
▁красивая	-8.21147
сь	-8.21595
▁браком	-8.21723
На	-8.2173
▁вместо	-8.21771
▁ОГ	-8.21946
▁Трек	-8.22596
▁равно	-8.22896
((	-8.22928
▁минус	-8.22932
▁сам	-8.23002
▁носки	-8.23037
xl	-8.23445
▁ОБ	-8.23646
▁спора	-8.23725
ла	-8.2401
▁хорошего	-8.24034
▁около	-8.24055
▁теперь	-8.2407
▁Свитер	-8.2463
▁красиво	-8.25428
▁довольно	-8.25529
деньги	-8.25539
▁Пришла	-8.25589
▁бедра	-8.25839
▁положил	-8.25923
▁сетке	-8.26117
▁всего	-8.26172
▁шёл	-8.26266
▁44-46	-8.26372
▁таблице	-8.27141
▁свои	-8.27371
▁самое	-8.27493
▁талия	-8.27738
▁вроде	-8.28147
▁потом	-8.28539
▁достаточно	-8.28588
▁резинка	-8.28623
ь	-8.28858
▁али	-8.29202
▁впритык	-8.29215
▁большая	-8.29235
▁заказать	-8.29628
В	-8.2987
),	-8.29955
ми	-8.30486
▁нравится	-8.31087
▁плечах	-8.31101
▁пальто	-8.31106
▁кофточка	-8.3111
▁брюки	-8.31182
▁во	-8.31354
▁недель	-8.3148
▁100	-8.31738
▁ниже	-8.32437
▁срок	-8.32505
▁него	-8.32909
ный	-8.32944
А	-8.33236
▁вид	-8.33725
XL	-8.34087
▁тянутся	-8.34701
▁подходит	-8.34725
▁пришлось	-8.35212
▁длине	-8.35256
▁160	-8.35639
▁общительный	-8.35647
▁костюм	-8.35696
▁До	-8.35928
▁вещи	-8.35976
▁тут	-8.36006
п	-8.36125
▁пока	-8.3616
▁качественно	-8.36188
....	-8.36292
▁открыть	-8.36311
▁ужасный	-8.36698
▁шло	-8.37045
▁коротковаты	-8.37045
▁165	-8.37337
▁Швы	-8.37371
▁потому	-8.37576
▁20	-8.38378
▁сетка	-8.38381
▁Брала	-8.38472
▁месте	-8.38705
▁дня	-8.38733
▁спереди	-8.38771
И	-8.38785
▁велико	-8.38893
▁шов	-8.39074
ет	-8.39087
▁плюс	-8.39139
▁Как	-8.39275
▁доставки	-8.39374
▁отвечал	-8.39784
▁размеры	-8.40109
▁отслеживается	-8.40405
▁всем	-8.4045
▁not	-8.41106
▁короткий	-8.41214
д	-8.41229
▁прям	-8.41443
▁отличается	-8.4146
▁XXL	-8.42202
▁НО	-8.42213
▁Рубашк	-8.42538
▁подошли	-8.42542
их	-8.4265
▁90	-8.43182
▁скорее	-8.43324
▁который	-8.43539
▁берите	-8.4369
▁почему	-8.43994
▁раза	-8.44314
▁совпадает	-8.44327
▁рисунок	-8.44369
▁Носить	-8.44394
воих	-8.45498
▁купила	-8.45863
▁невозможно	-8.45979
▁Ну	-8.46542
▁вся	-8.46683
▁России	-8.46896
б	-8.47292
С	-8.47406
ку	-8.4747
▁пошив	-8.47496
▁намного	-8.47722
▁материала	-8.48259
▁сшита	-8.48622
▁низ	-8.48827
▁яркий	-8.49175
▁внутри	-8.49228
▁I	-8.49357
L	-8.49474
▁почте	-8.49535
▁сказать	-8.49553
ло	-8.49678
▁которы	-8.4998
▁классная	-8.50324
▁После	-8.50365
▁покупкой	-8.50721
▁кг	-8.51155
▁чего	-8.51512
▁двух	-8.51856
▁колготки	-8.52249
▁стороны	-8.5226
▁всегда	-8.52373
▁отличный	-8.53051
▁еле	-8.53254
▁теплая	-8.53501
▁средств	-8.53552
▁претензий	-8.53832
▁оказались	-8.53857
хотя	-8.54156
▁село	-8.54175
▁ему	-8.54258
▁Буду	-8.54367
▁ровно	-8.54658
▁факту	-8.54706
ни	-8.54759
▁кто	-8.54902
▁размеров	-8.54915
▁трикотаж	-8.55315
▁сообщения	-8.55848
▁пару	-8.55906
▁ужасная	-8.55942
▁мех	-8.56076
▁первой	-8.56256
▁маленькие	-8.56281
▁ог	-8.56534
ое	-8.56547
▁модель	-8.56631
▁везде	-8.56748
▁несколько	-8.56781
▁одной	-8.56828
▁недовольна	-8.56866
!!!!!	-8.56922
спасибо	-8.57025
так	-8.57026
▁сели	-8.57202
l	-8.57297
▁максимум	-8.57544
▁правда	-8.57659
▁мою	-8.57915
▁Ждала	-8.57979
▁брак	-8.58258
▁критично	-8.58324
▁большие	-8.58341
▁восторге	-8.58359
▁заказываю	-8.58472
▁спине	-8.58741
▁Отличная	-8.58741
▁ОТ	-8.58748
▁Хорошая	-8.58748
▁лет	-8.58784
▁узкие	-8.59178
Е	-8.59871
▁плохая	-8.60022
▁качественный	-8.6007
▁тонкие	-8.60074
▁Л	-8.601
▁одна	-8.60521
▁будут	-8.60813
▁просил	-8.60855
▁написано	-8.60895
▁колена	-8.61529
▁покупать	-8.61732
▁магазин	-8.61896
▁закрыли	-8.62307
▁понравились	-8.62593
and	-8.62734
▁руб	-8.62746
▁52	-8.62749
▁плотный	-8.63061
▁отправлял	-8.63103
▁)	-8.6315
н	-8.63169
▁тем	-8.63447
▁майка	-8.63921
▁Спор	-8.64068
0	-8.64277
▁прошло	-8.64451
▁хотелось	-8.64888
▁кофты	-8.65242
▁Нитки	-8.65295
▁длинные	-8.65312
▁46-48	-8.65799
▁понятно	-8.65895
2	-8.65897
▁плохой	-8.65963
много	-8.65973
▁фасон	-8.65997
▁Москвы	-8.66136
▁куртку	-8.66146
▁Всё	-8.66166
▁ждать	-8.66175
▁принципе	-8.66605
▁xxl	-8.66656
▁Продавца	-8.66695
ной	-8.66839
▁себя	-8.67499
▁!!!	-8.67875
▁оставляет	-8.67962
▁защиту	-8.68438
Я	-8.68798
те	-8.69009
▁ней	-8.69071
▁to	-8.69217
г	-8.69283
▁a	-8.69572
ые	-8.69706
▁ответил	-8.69995
▁желать	-8.7029
это	-8.70292
▁Супер	-8.703
▁торчит	-8.70301
▁шорты	-8.70341
▁плечи	-8.70397
▁дырка	-8.70647
▁какая	-8.70712
▁её	-8.70757
▁такого	-8.70986
▁защиты	-8.71235
▁100%	-8.7127
▁осень	-8.7127
▁Синтетика	-8.71282
▁здесь	-8.71716
▁Блузка	-8.71763
▁курьером	-8.71773
▁возможно	-8.72077
▁...	-8.72198
▁соответствуют	-8.72225
▁отправлен	-8.72287
▁видимо	-8.72451
▁кому	-8.72728
▁пришиты	-8.72904
все	-8.72992
▁одно	-8.73112
▁закажу	-8.73285
▁одеть	-8.7364
▁Продавцу	-8.73761
▁ставлю	-8.7398
▁подарочек	-8.74132
▁The	-8.74176
цвет	-8.74223
▁том	-8.74376
ок	-8.74554
▁пакет	-8.74617
▁кофту	-8.74621
▁отслеживалась	-8.74647
▁Футболка	-8.74664
Не	-8.74676
▁перед	-8.74719
▁области	-8.75104
▁it	-8.75152
▁малы	-8.75486
▁алиэкспресс	-8.75611
▁отвечает	-8.75615
▁обидно	-8.75702
▁руки	-8.75706
▁12	-8.75986
▁фигуре	-8.76117
▁обтяжку	-8.76596
▁эта	-8.76646
ные	-8.76657
▁весь	-8.76785
до	-8.76803
▁куртки	-8.77099
▁примерно	-8.7715
▁верх	-8.77203
▁отзывам	-8.77294
▁лосины	-8.7761
▁этой	-8.7762
▁толстовка	-8.77631
▁огромное	-8.77635
▁ходить	-8.77641
ткань	-8.77741
▁короткое	-8.7777
▁подождать	-8.78112
▁лето	-8.78137
▁Пришли	-8.78179
Продавец	-8.78254
▁Из	-8.78543
▁неделю	-8.78737
▁топ	-8.78917
▁отзывов	-8.79165
▁закрыть	-8.79171
да	-8.79222
▁168	-8.79292
▁адрес	-8.79315
▁кривые	-8.79666
▁48-50	-8.7978
▁164	-8.79851
▁наверное	-8.79871
▁расстроилась	-8.80171
▁ветер	-8.8018
▁кажется	-8.80194
▁Шл	-8.80372
▁бедрах	-8.80405
▁цвете	-8.80562
▁модели	-8.8069
▁белый	-8.8073
▁нельзя	-8.80762
▁неплохо	-8.81051
▁волос	-8.811
▁открывать	-8.81215
t	-8.81542
▁нормальное	-8.81995
▁прислал	-8.82034
▁отзыв	-8.82335
'	-8.82402
▁номер	-8.82532
▁сами	-8.82601
▁подойдет	-8.82904
▁делать	-8.83377
▁абсолютно	-8.83383
▁Для	-8.83407
▁написала	-8.83422
▁придется	-8.83494
▁похоже	-8.83579
ч	-8.8374
▁40	-8.83779
▁халат	-8.83906
доставка	-8.84076
▁тому	-8.84364
▁пахнет	-8.84436
▁хотел	-8.84735
▁взять	-8.84957
▁отказался	-8.84989
▁дошла	-8.8507
▁обратно	-8.85098
▁пошива	-8.85118
▁нормальная	-8.85511
▁рукавах	-8.85638
▁15	-8.85982
▁пуховик	-8.86181
▁кого	-8.86551
▁Просто	-8.86681
e	-8.86781
▁подойдёт	-8.87178
▁маломерка	-8.87202
только	-8.87257
▁тряпка	-8.87741
ываю	-8.87787
▁объем	-8.87908
▁никак	-8.88256
▁(((	-8.88338
▁красивое	-8.88439
▁Сама	-8.88446
▁пор	-8.88772
▁широкие	-8.8891
з	-8.89079
Очень	-8.89184
▁чтоб	-8.89208
▁Т	-8.89271
▁покупке	-8.89414
▁широкая	-8.89448
▁понимаю	-8.89475
ну	-8.89928
ами	-8.89954
▁цене	-8.90004
▁Даж	-8.9007
▁сидят	-8.90082
▁указан	-8.90311
▁описание	-8.90435
▁пятна	-8.90448
▁уж	-8.90536
▁одну	-8.90561
▁отличные	-8.90562
▁угадала	-8.90585
▁175	-8.90644
▁Ð	-8.90645
▁курьер	-8.90684
m	-8.90738
▁стала	-8.90852
▁б	-8.90992
▁11	-8.91103
▁тонкое	-8.91172
▁Только	-8.91239
▁сейчас	-8.91344
▁получен	-8.91353
▁рукаве	-8.91393
▁какие	-8.91545
▁росте	-8.91691
▁пользу	-8.91721
▁других	-8.91725
▁Алиэкспресс	-8.91756
▁Хотя	-8.91815
▁вам	-8.92016
▁фотографии	-8.92308
▁внизу	-8.92582
▁висит	-8.92921
▁отправить	-8.92925
▁качественная	-8.92935
▁7	-8.93081
▁доставлен	-8.93178
▁этих	-8.93253
▁другом	-8.93369
▁Отличные	-8.93484
▁остальном	-8.93486
▁торчащих	-8.93504
▁прозрачная	-8.93551
▁либо	-8.93683
▁леггинсы	-8.94079
▁доставили	-8.9423
°	-8.94678
Штаны	-8.94678
▁классные	-8.9469
▁ощущение	-8.94722
▁местах	-8.94728
3	-8.94754
У	-8.94872
▁самой	-8.94967
Но	-8.95076
лась	-8.95257
▁обработаны	-8.9534
▁приятные	-8.95378
вою	-8.95424
▁дал	-8.95433
▁г	-8.9546
О	-8.95752
▁маловат	-8.95816
▁рубашки	-8.95887
▁6	-8.95907
▁92	-8.95971
▁мое	-8.96265
ий	-8.96291
▁пижама	-8.96558
▁вполне	-8.96641
если	-8.96772
▁ожидания	-8.96871
▁предложил	-8.96871
▁ок	-8.96919
▁кружево	-8.97047
▁темно	-8.97149
▁зря	-8.97151
▁пуговицы	-8.97187
ей	-8.97247
▁обтяг	-8.97723
3⁄4	-8.97727
▁быструю	-8.97729
▁купить	-8.97751
▁небольшой	-8.97999
М	-8.98298
▁резинки	-8.98419
▁именно	-8.98518
ем	-8.98844
((((	-8.98999
же	-8.99043
▁этим	-8.99088
▁дыркой	-8.99603
▁носке	-8.99605
ст	-8.99899
▁сшиты	-9.00062
▁Быстрая	-9.00296
▁xs	-9.00303
▁Запах	-9.00948
▁держит	-9.00967
▁решила	-9.01161
▁теплый	-9.01559
▁края	-9.0182
от	-9.01915
▁Во	-9.01918
Спасибо	-9.01927
▁неплохое	-9.01989
▁моя	-9.0219
▁вопросы	-9.0221
▁молния	-9.02231
a	-9.02532
▁Да	-9.0262
▁соответсвует	-9.02822
▁кое	-9.02824
▁куда	-9.02865
▁карманы	-9.02924
йте	-9.03096
▁пошито	-9.03096
▁ноги	-9.03208
▁воротник	-9.03391
▁просвечивают	-9.0346
▁пути	-9.03478
▁побольше	-9.03644
▁л	-9.03736
▁seller	-9.04119
▁Сам	-9.04165
▁кардиган	-9.04244
хл	-9.04341
чем	-9.04392
▁60	-9.04462
▁пояс	-9.04578
▁получил	-9.04632
▁х	-9.04659
▁мешок	-9.04784
▁другое	-9.04787
▁огромный	-9.04809
▁которая	-9.04928
▁реальности	-9.05455
▁цены	-9.05474
▁тёплая	-9.05526
▁96	-9.05796
»	-9.06119
▁ребенка	-9.06119
▁in	-9.0622
▁товаром	-9.06624
▁30	-9.06646
▁непонятно	-9.06779
▁должна	-9.06795
▁Москву	-9.06795
▁длиннее	-9.06872
1	-9.06912
та	-9.0698
▁172	-9.07066
▁Д	-9.07087
▁обещал	-9.07256
во	-9.07318
рукава	-9.07424
▁сделать	-9.07507
▁плохого	-9.08003
▁пол	-9.08098
▁сказал	-9.08106
ах	-9.08628
▁положили	-9.088
▁почту	-9.0885
▁шву	-9.0885
▁водолазка	-9.08871
▁тянет	-9.08873
▁Ни	-9.08943
▁70	-9.09017
▁велик	-9.0903
▁обычно	-9.09349
▁изделия	-9.09544
▁осталась	-9.09563
▁ушивать	-9.09589
▁НА	-9.09631
▁Длина	-9.09644
▁дошел	-9.09648
▁возврата	-9.09907
▁юбки	-9.10244
▁дочери	-9.10259
▁теплые	-9.10317
▁нигде	-9.10347
▁неприятный	-9.10367
▁размерная	-9.10614
▁прошито	-9.10771
▁посылки	-9.10964
▁Смотрится	-9.11012
▁моего	-9.11042
▁Жаль	-9.11045
ную	-9.11109
нитки	-9.11494
▁80	-9.11496
▁Больше	-9.11519
▁Отличный	-9.11657
▁сначала	-9.11673
▁тёплые	-9.11677
▁трусики	-9.11685
▁постоянно	-9.11725
▁правильно	-9.1173
ться	-9.11834
▁разные	-9.1191
ш	-9.11981
▁область	-9.12372
▁футболки	-9.12375
▁юбку	-9.12394
▁резинку	-9.12439
▁Получила	-9.1244
ра	-9.12457
▁отвратительное	-9.12741
▁покупайте	-9.13114
▁дочке	-9.1312
▁Хорошее	-9.13162
5	-9.13469
заказала	-9.13679
▁Ношу	-9.13902
▁75	-9.13978
▁40-42	-9.14003
действительности	-9.14024
▁Сшито	-9.14112
▁Отлично	-9.14155
▁велика	-9.14328
ко	-9.14416
открыла	-9.14441
▁прямо	-9.14485
▁явно	-9.14598
▁покупала	-9.14711
▁увы	-9.14712
▁ноября	-9.1531
▁пере	-9.15337
▁25	-9.15608
▁Х	-9.15612
▁другие	-9.16024
▁пойдет	-9.16032
▁маме	-9.16056
▁отвратительно	-9.1642
▁88	-9.16484
▁m	-9.16608
▁сшит	-9.16642
▁страшно	-9.16773
▁прошиты	-9.16777
▁дешевая	-9.16791
▁Пришёл	-9.16795
▁получить	-9.16798
▁XS	-9.16832
он	-9.1688
▁надеюсь	-9.16937
▁розовый	-9.16977
▁серый	-9.16999
▁всех	-9.17026
▁обхват	-9.17148
▁открыти	-9.17266
швы	-9.17402
рост	-9.17427
▁дождалась	-9.17519
▁шапка	-9.17531
▁1,5	-9.17628
▁длинная	-9.17632
▁шли	-9.17645
;	-9.17667
▁хл	-9.18254
▁Джинсы	-9.18282
▁сайте	-9.18323
▁тогда	-9.18338
▁Хорошо	-9.18372
▁14	-9.18569
▁указано	-9.18702
▁Б	-9.18758
заказывала	-9.1893
▁ко	-9.19043
▁попу	-9.19072
▁Ожидала	-9.19081
▁неплохая	-9.19081
▁звезду	-9.19158
ке	-9.19186
▁МО	-9.19666
▁звёзд	-9.19721
▁наш	-9.19795
▁позже	-9.19811
▁сумму	-9.19811
▁комфортно	-9.19862
▁дешево	-9.19933
▁жду	-9.19995
▁приятное	-9.20148
".	-9.20194
▁54	-9.20251
▁98	-9.20522
▁рубашку	-9.20585
▁честно	-9.20617
▁топорщится	-9.2063
По	-9.20646
very	-9.20676
▁случае	-9.20721
▁спустя	-9.20801
▁удобно	-9.20985
▁проблем	-9.2118
Качество	-9.21272
▁Ч	-9.21302
▁швов	-9.21366
▁гораздо	-9.21384
▁зиму	-9.21418
▁комплект	-9.21423
▁мягкие	-9.21454
ен	-9.21544
▁одном	-9.21867
▁нем	-9.22128
▁стоимости	-9.22153
▁носочки	-9.22154
▁смотрятся	-9.22157
▁Кофточка	-9.22211
▁красивые	-9.2222
▁173	-9.22236
▁жалко	-9.22255
товар	-9.22307
▁:)	-9.22584
▁пятно	-9.22827
▁9	-9.22923
▁повезло	-9.22947
▁трусы	-9.22993
▁дошло	-9.23043
▁сделан	-9.23052
▁Ужасно	-9.23063
▁просила	-9.23226
▁попросила	-9.235
▁белье	-9.23604
сти	-9.23686
ти	-9.23716
▁хлопка	-9.23753
▁между	-9.23772
▁однозначно	-9.2383
▁среднее	-9.23854
▁таких	-9.23965
▁выслал	-9.24285
▁Выглядит	-9.24608
▁насыщенный	-9.24627
▁Был	-9.24636
▁подкладка	-9.24637
▁сделала	-9.24814
▁класс	-9.24834
идит	-9.24848
▁просвечивается	-9.24873
▁11.11	-9.2497
▁талию	-9.25367
▁широкий	-9.2539
▁слегка	-9.25422
▁строчки	-9.25451
▁полное	-9.25577
▁95	-9.25881
ых	-9.25982
Доставка	-9.26132
ется	-9.26254
▁Всем	-9.26471
мне	-9.26498
▁:(	-9.26744
▁85	-9.26835
Т	-9.27009
▁of	-9.27009
▁назад	-9.27015
▁другую	-9.27041
▁белая	-9.27053
▁те	-9.27098
▁город	-9.27242
▁единственное	-9.27253
▁вас	-9.27308
▁Ес	-9.27362
▁виде	-9.27374
▁прекрасно	-9.27455
▁8	-9.27556
▁идет	-9.27564
▁Что	-9.27584
▁рос	-9.27649
Размер	-9.27805
▁придёт	-9.27815
▁капюшон	-9.27824
▁Хорошие	-9.27846
▁доставкой	-9.27847
▁покупка	-9.27856
▁электризуется	-9.27865
▁тоненькая	-9.27886
▁люблю	-9.27888
▁Р	-9.27969
▁Советую	-9.28028
лись	-9.28239
▁коротковата	-9.28512
▁стирке	-9.28686
▁бедер	-9.28687
▁свитера	-9.2869
▁закрыл	-9.28724
▁167	-9.2873
▁качеством	-9.28806
му	-9.28872
где	-9.28926
▁ей	-9.29121
▁звезд	-9.29296
▁17	-9.29326
▁большего	-9.29497
▁СПб	-9.29542
▁качественные	-9.29562
▁плотные	-9.29568
▁дошёл	-9.29578
▁впечатление	-9.29579
▁пришита	-9.29601
▁162	-9.29607
▁Он	-9.29686
▁единственны	-9.29712
▁открывала	-9.29713
▁домой	-9.29769
▁идёт	-9.29838
▁боди	-9.30262
d	-9.30359
▁size	-9.30396
▁черный	-9.30408
▁маломерят	-9.30409
▁молодец	-9.30431
▁Единственный	-9.3044
▁Единственное	-9.30518
▁ОЧЕНЬ	-9.30522
▁Вообщем	-9.30676
▁нас	-9.30731
▁течени	-9.30894
▁2,5	-9.30991
▁маловата	-9.31086
▁+	-9.311
ного	-9.31216
▁район	-9.31251
▁отслеживания	-9.31254
▁получается	-9.31282
▁действительно	-9.31572
▁колен	-9.31893
▁Костюм	-9.32147
▁13	-9.3217
▁никаких	-9.32174
▁августа	-9.32197
▁ооочень	-9.32321
▁158	-9.32437
▁моем	-9.32658
▁вырез	-9.3279
▁((	-9.32988
▁перешивать	-9.33
▁прикрывает	-9.33006
▁дёшево	-9.33009
▁Пальто	-9.33017
▁полная	-9.33076
▁одного	-9.33144
▁похожа	-9.33231
▁плотно	-9.33297
▁придет	-9.33804
▁всю	-9.33881
▁пишут	-9.33899
▁белые	-9.33935
даже	-9.34014
▁грудью	-9.34064
▁написал	-9.34221
ж	-9.34231
▁пришит	-9.34453
▁обманщик	-9.3459
▁качестве	-9.3459
▁проблема	-9.34778
▁Когда	-9.34848
▁длины	-9.34874
▁великоват	-9.34993
▁свое	-9.35045
▁странно	-9.35163
ре	-9.35172
▁особенно	-9.35254
▁ним	-9.35578
▁but	-9.35705
▁XXXL	-9.3572
▁этому	-9.35815
▁похож	-9.35857
▁Ужасное	-9.3612
▁край	-9.36332
▁п	-9.36474
▁:	-9.36515
▁рукова	-9.36562
▁времени	-9.3662
▁другая	-9.36633
▁высоко	-9.36661
▁высокая	-9.36667
▁горловина	-9.36695
▁Поэтому	-9.36699
▁вернула	-9.36771
▁разных	-9.36787
▁коротки	-9.36795
▁заказывали	-9.36864
▁синий	-9.3698
▁велики	-9.37045
ed	-9.37267
▁хуже	-9.37428
▁Вообще	-9.37446
▁Ничего	-9.37504
▁футболку	-9.37507
▁высоте	-9.37512
чуть	-9.37555
▁Ужасный	-9.37576
▁проблемы	-9.376
y	-9.37684
▁писал	-9.37769
П	-9.38046
6	-9.38173
▁продлил	-9.38174
▁почта	-9.38326
▁практически	-9.38429
▁Хороший	-9.38429
▁одевать	-9.38435
▁блузки	-9.38436
▁заявленному	-9.3845
▁классный	-9.38477
няя	-9.38479
▁бокам	-9.38479
▁особо	-9.38565
ит	-9.38722
ие	-9.39053
▁реально	-9.39081
▁жизни	-9.39363
▁quality	-9.39384
ле	-9.39417
▁девочки	-9.39426
▁пух	-9.39599
▁таки	-9.39926
▁части	-9.40149
▁изделие	-9.40319
▁размере	-9.40394
▁таким	-9.40543
▁вязка	-9.40672
▁грязно	-9.40711
▁попросил	-9.40853
▁продлевал	-9.40943
▁легко	-9.40964
К	-9.40997
▁дом	-9.41045
▁18	-9.41053
▁was	-9.41258
▁штанишки	-9.41259
▁половину	-9.41259
▁принт	-9.41271
▁разочарование	-9.41282
▁черные	-9.41298
▁аккуратные	-9.41345
▁рукавов	-9.41371
▁крой	-9.41433
▁сверху	-9.41447
▁надеть	-9.41606
ва	-9.4164
▁вообщем	-9.41696
!)	-9.42
▁for	-9.42221
▁должен	-9.42233
▁дырки	-9.42244
▁красный	-9.42305
▁кошмар	-9.42318
▁менее	-9.42337
▁Короче	-9.42371
▁Она	-9.42387
▁замечательно	-9.42802
▁l	-9.42938
▁удобные	-9.43263
сть	-9.43318
▁неприятная	-9.43589
ных	-9.4365
n	-9.43665
▁само	-9.43937
▁неприятно	-9.43943
▁катышки	-9.44202
▁полтора	-9.44203
ным	-9.44355
▁заказе	-9.44395
▁некрасиво	-9.44404
ым	-9.45027
▁контакт	-9.45137
▁ателье	-9.45162
▁дороже	-9.45168
▁липнет	-9.4522
▁тёплый	-9.45241
рекомендую	-9.45281
▁on	-9.45378
8	-9.45647
7	-9.45798
▁От	-9.45821
▁большим	-9.45889
▁швам	-9.46004
▁16	-9.4607
▁девушек	-9.46162
▁плотнее	-9.46162
▁картинки	-9.46167
▁нитками	-9.46169
▁темнее	-9.46173
▁огромная	-9.46177
▁легинсы	-9.46194
▁Брю	-9.46195
▁голимая	-9.46222
▁выглядят	-9.46402
▁94	-9.46561
▁роста	-9.46706
▁некоторы	-9.46761
место	-9.46765
▁200	-9.46869
▁та	-9.46991
▁ребёнка	-9.47175
ly	-9.47179
▁300	-9.47215
▁Резинк	-9.47222
▁хочется	-9.47226
▁Взяла	-9.47266
▁никогда	-9.4733
▁Написала	-9.47407
▁одни	-9.47523
▁объём	-9.47564
▁Вот	-9.47737
▁бёдра	-9.47975
▁покупки	-9.48201
▁говно	-9.48387
▁Г	-9.48456
▁вопрос	-9.48836
▁вариант	-9.49102
▁следующи	-9.49114
▁отправка	-9.4932
▁Теперь	-9.49348
при	-9.49487
удя	-9.49786
▁отправки	-9.50265
▁ошиблась	-9.50267
▁зимы	-9.50271
▁колется	-9.50284
▁должно	-9.50298
▁увидела	-9.50304
▁получилось	-9.50307
▁лезет	-9.5031
▁Можно	-9.50363
▁полный	-9.50363
▁также	-9.5097
!!!!!!	-9.5107
▁шарф	-9.51124
▁покупателя	-9.5113
▁оч	-9.51238
▁почты	-9.51318
▁длину	-9.51327
▁163	-9.51335
▁данного	-9.51358
▁Думаю	-9.51388
▁Фото	-9.51398
▁хочу	-9.51407
▁придётся	-9.51484
синтетика	-9.51524
▁Мои	-9.51552
▁маловато	-9.5232
4	-9.52353
▁коротковат	-9.52414
▁нормальный	-9.5242
▁Разочарована	-9.52462
или	-9.52482
▁типа	-9.52521
материал	-9.52575
ц	-9.52638
▁момента	-9.52759
▁года	-9.52929
▁рус	-9.531
об	-9.53133
ное	-9.53263
▁магазина	-9.53297
o	-9.53363
▁главное	-9.53457
Один	-9.53458
▁опять	-9.53539
▁сегодня	-9.53569
▁влезла	-9.53599
Л	-9.53911
▁27	-9.54004
▁обман	-9.54136
брала	-9.54171
таки	-9.54179
S	-9.54185
▁Китая	-9.54544
▁синтетики	-9.54544
▁блузку	-9.54551
▁смогла	-9.54577
▁узкая	-9.54598
▁стоимость	-9.54609
ль	-9.54736
ик	-9.55065
▁Ужас	-9.55082
▁w	-9.55267
▁дорого	-9.55357
",	-9.555
ят	-9.5562
▁фигуру	-9.55658
▁Может	-9.55756
▁специально	-9.55777
▁самого	-9.55842
▁пятном	-9.55862
лся	-9.55944
▁другому	-9.56041
тавлю	-9.56065
▁посоветовал	-9.56128
▁кружева	-9.56181
▁отправляли	-9.56329
▁скидку	-9.56754
▁длинна	-9.56764
▁декабря	-9.56779
▁отдать	-9.5679
де	-9.56793
▁отзывах	-9.56795
▁полоски	-9.56814
▁давит	-9.56816
▁поняла	-9.56842
▁оооочень	-9.56847
▁Мех	-9.5686
▁Плохо	-9.56902
▁Сел	-9.57061
▁28	-9.57086
▁год	-9.57259
им	-9.5727
Х	-9.57699
из	-9.57796
▁good	-9.5784
▁взгляд	-9.57877
?!	-9.5789
▁успела	-9.57911
▁затяжки	-9.57919
▁Толстовка	-9.57937
▁легкая	-9.57953
▁длинный	-9.5796
без	-9.57974
▁настолько	-9.58015
))))	-9.581
Деньги	-9.58132
спор	-9.5819
▁пошита	-9.58224
▁прибыл	-9.58232
u	-9.5843
▁мы	-9.58449
▁110	-9.58518
Д	-9.58887
заказ	-9.5893
▁место	-9.58972
▁смогу	-9.59031
▁нормальные	-9.59055
▁176	-9.59074
▁снова	-9.59091
▁холодно	-9.59096
▁столько	-9.59217
▁размерам	-9.59241
ам	-9.59573
▁65	-9.59822
▁Без	-9.5991
носить	-9.60006
ешь	-9.601
▁хотите	-9.60163
▁попе	-9.60168
▁Пижама	-9.60184
▁Шорт	-9.60197
▁Долго	-9.60209
▁РЕКОМЕНДУЮ	-9.60209
▁тело	-9.60248
▁500	-9.60375
▁ворот	-9.60566
▁получили	-9.6061
ришел	-9.60715
▁подклад	-9.60719
▁ярко	-9.60974
ить	-9.61306
1⁄2	-9.61326
▁оценку	-9.61326
▁пойдёт	-9.61326
▁раньше	-9.61332
▁форму	-9.61335
▁обтягивает	-9.61335
▁ниточки	-9.61347
▁Тонкая	-9.61352
i	-9.61354
▁порадовало	-9.61358
▁!!!!	-9.61392
▁бёдрах	-9.61483
тся	-9.61526
▁26	-9.61705
▁коротко	-9.61894
▁низу	-9.61971
▁наверно	-9.62168
▁ростом	-9.62292
▁Шапк	-9.62502
▁выслать	-9.62505
▁лямки	-9.62541
▁Ещё	-9.62554
▁пятнами	-9.62554
▁выбрала	-9.6261
▁широко	-9.62619
▁никакого	-9.62621
▁неровные	-9.62857
кг	-9.63182
▁решил	-9.63262
▁мая	-9.63303
▁зачем	-9.63365
▁Сшит	-9.63381
НО	-9.6339
▁Доставил	-9.63488
▁174	-9.63707
▁должны	-9.63719
▁xxxl	-9.63721
▁шоке	-9.63728
▁отвратительный	-9.63732
щ	-9.63745
▁странный	-9.63753
▁кофте	-9.63785
▁экспресс	-9.6387
▁аж	-9.64333
▁кривой	-9.64597
.....	-9.64706
▁обл	-9.64783
▁Е	-9.64822
▁продавцов	-9.64898
▁молнии	-9.64899
▁нужен	-9.64905
▁синтетическая	-9.64932
▁Думала	-9.64935
▁Майка	-9.64935
▁туника	-9.64936
▁пишет	-9.64946
▁замок	-9.6498
кой	-9.65013
трек	-9.65243
ют	-9.65282
ерез	-9.65307
▁Ш	-9.6536
ал	-9.65374
▁неаккуратно	-9.65414
▁летом	-9.65458
▁ответ	-9.65531
ше	-9.65544
▁бюст	-9.65546
▁пиджак	-9.65652
▁56	-9.66019
▁говоря	-9.66048
▁октября	-9.66117
▁конца	-9.66118
▁остался	-9.66118
▁доставке	-9.66119
▁ожидать	-9.6612
▁посадка	-9.6612
▁середины	-9.66125
▁великовата	-9.66131
ты	-9.66151
лось	-9.66186
▁плохие	-9.66228
▁стрейч	-9.66253
▁имеет	-9.6627
▁снизу	-9.66296
▁заявлено	-9.66329
Р	-9.66387
▁классное	-9.66429
▁живот	-9.66432
▁мес	-9.66639
▁закрыла	-9.66854
▁писала	-9.67042
ан	-9.67194
▁карман	-9.67297
▁стоят	-9.67333
▁куртке	-9.67352
▁Рисунок	-9.67369
▁облипку	-9.67369
▁Первы	-9.67402
▁дошли	-9.67428
▁166	-9.67432
:)	-9.67435
▁решение	-9.67539
:(	-9.67688
пришла	-9.67725
▁начал	-9.67908
▁запахом	-9.67932
▁)))	-9.68462
▁50-52	-9.68602
▁согласился	-9.68602
▁you	-9.68622
▁каждый	-9.68631
мой	-9.68642
▁складки	-9.68687
▁150	-9.68696
▁брака	-9.68821
▁стал	-9.69037
▁торчали	-9.69867
▁Мягкий	-9.69885
▁Девочки	-9.69887
▁воняет	-9.69907
▁сентября	-9.69931
▁Пошив	-9.69941
▁сильный	-9.7003
▁вверх	-9.70096
▁снимаю	-9.70103
ать	-9.70174
▁д	-9.70546
▁прошита	-9.70552
▁течение	-9.70574
▁возврате	-9.70714
▁сообщение	-9.7115
▁пожалеете	-9.7115
▁реале	-9.7115
▁хватает	-9.7115
▁Классная	-9.71161
▁посвободнее	-9.71165
▁удобная	-9.71215
▁завышена	-9.7122
▁бежевый	-9.7127
▁ужасные	-9.71285
Рекомендую	-9.71566
буду	-9.71588
▁23	-9.71611
▁104	-9.71974
▁моих	-9.72074
ё	-9.72359
▁прошит	-9.72391
▁order	-9.72434
▁прогадала	-9.72448
▁трудом	-9.72453
▁свободнее	-9.72478
▁никто	-9.72478
▁довольны	-9.72478
▁отслеживалось	-9.72491
▁теле	-9.72492
па	-9.72492
▁курточка	-9.72517
▁какое	-9.72844
первых	-9.72877
ро	-9.72968
▁поясе	-9.73211
▁круто	-9.73231
9	-9.73464
▁низко	-9.73602
▁86	-9.73639
▁заметно	-9.73764
▁покупателей	-9.73764
▁связь	-9.73764
▁присутствует	-9.73767
▁закрыт	-9.73808
▁2-3	-9.73809
▁руках	-9.73831
▁вернут	-9.73841
▁местами	-9.73847
▁зимой	-9.7386
▁кроме	-9.73888
▁заказали	-9.74323
▁начала	-9.74355
▁котор	-9.74624
▁жутко	-9.74733
▁шва	-9.74781
▁брюк	-9.74799
▁коротковато	-9.74972
ось	-9.75034
▁линяет	-9.75097
▁чёрный	-9.75097
▁июля	-9.75098
▁торчащие	-9.75106
▁притык	-9.75149
▁таблица	-9.7515
▁вина	-9.75164
▁сторону	-9.75164
▁обычная	-9.75199
▁иначе	-9.75277
▁пар	-9.75386
▁сколько	-9.75588
▁спору	-9.75804
▁полиэстер	-9.76042
▁срока	-9.76223
▁То	-9.76342
▁дешевле	-9.76449
▁крутая	-9.76456
▁Совсем	-9.76516
▁естественно	-9.7653
▁свободная	-9.76568
▁рада	-9.76571
▁упаковано	-9.76595
▁плюсов	-9.76902
▁неплохой	-9.76957
▁19	-9.77081
▁великовато	-9.77183
▁момент	-9.77329
уже	-9.77544
▁другим	-9.77547
▁параметрам	-9.77559
▁Рост	-9.77731
▁this	-9.77819
▁белую	-9.77847
▁Водолазка	-9.77849
▁Соответствует	-9.7785
▁яркие	-9.77923
▁вторая	-9.77979
ди	-9.78155
▁поставила	-9.78168
▁писали	-9.78339
НЕ	-9.78362
▁светло	-9.7842
▁29	-9.78758
▁видны	-9.78911
▁принял	-9.78976
▁сроки	-9.78986
▁102	-9.79029
▁Слишком	-9.79207
▁кормил	-9.79226
▁конце	-9.79233
▁могла	-9.79279
▁маленькое	-9.79293
▁держится	-9.79318
▁весну	-9.79355
ны	-9.79435
ор	-9.79457
▁пуговиц	-9.79688
▁Ñ	-9.79717
▁93	-9.79721
ту	-9.7987
вы	-9.79902
▁цветов	-9.80064
ин	-9.80073
ждала	-9.80108
▁первых	-9.80153
▁открыл	-9.80445
▁висят	-9.80616
▁стыдно	-9.80616
▁связи	-9.80616
▁получится	-9.80619
▁оплаты	-9.80627
▁работу	-9.8063
▁дело	-9.80632
▁последний	-9.80636
▁Ужасная	-9.80652
▁запасом	-9.80669
▁блуза	-9.80675
▁результате	-9.80691
▁Цена	-9.80716
▁которой	-9.80756
▁швах	-9.80762
▁тепло	-9.80807
▁лично	-9.8086
▁никакой	-9.80888
данный	-9.81014
можно	-9.81161
▁чисто	-9.812
▁ног	-9.81385
▁55	-9.81425
▁цвету	-9.81606
▁всему	-9.81681
▁зато	-9.81743
▁майки	-9.82044
▁голову	-9.82059
▁кривая	-9.8207
▁огромные	-9.82117
▁Покупк	-9.82177
▁ждите	-9.82234
▁обычный	-9.82242
▁0	-9.82247
▁защита	-9.82265
▁неправильно	-9.8234
▁сделаны	-9.82457
▁89	-9.82481
▁me	-9.82575
Ткань	-9.82612
▁156	-9.82626
▁виду	-9.82627
▁Про	-9.82745
вес	-9.82785
▁38	-9.83452
▁Колготки	-9.83494
▁беру	-9.83494
чи	-9.83495
▁суммы	-9.83496
▁обязательно	-9.83514
▁подруге	-9.83514
▁неудобно	-9.83553
▁Талия	-9.83562
▁посмотрим	-9.8363
▁смело	-9.83693
▁Мало	-9.83722
▁глаза	-9.8373
га	-9.83747
когда	-9.83968
▁87	-9.83988
▁Торча	-9.84418
лет	-9.84418
▁кашемир	-9.84466
com	-9.84472
▁носит	-9.84492
▁далеко	-9.84964
▁отправкой	-9.84964
▁money	-9.84965
▁чистая	-9.85029
▁ближе	-9.8505
▁Покупала	-9.8509
▁видела	-9.85095
▁составе	-9.85334
▁крайне	-9.85463
ры	-9.85484
+	-9.8555
поэтому	-9.85577
▁впереди	-9.85606
▁какую	-9.85799
▁58	-9.86012
▁D	-9.86093
://	-9.86456
▁небольшим	-9.86457
▁отстой	-9.86457
▁дальше	-9.86461
▁собирается	-9.86472
▁одела	-9.86532
▁пары	-9.86553
▁выкинула	-9.8657
▁красная	-9.86576
▁таком	-9.86649
▁Топ	-9.86663
▁22	-9.86666
▁неё	-9.86943
просто	-9.87113
▁каких	-9.87195
мер	-9.87213
▁36	-9.87271
ала	-9.87561
▁нижне	-9.87616
▁косяк	-9.87698
▁заказов	-9.87722
она	-9.87785
▁ходьбе	-9.87972
▁пупка	-9.87972
кобы	-9.87978
▁закрывает	-9.87979
▁минимум	-9.87993
▁смотреться	-9.87994
▁Конечно	-9.88006
▁троечку	-9.88006
▁Приятная	-9.88012
че	-9.88034
▁длинное	-9.88065
▁сплошная	-9.88089
▁Правда	-9.88103
▁счет	-9.88216
▁меха	-9.88273
▁неровно	-9.88275
ing	-9.88319
▁росту	-9.88619
после	-9.88629
▁городе	-9.88684
▁Они	-9.8869
▁приходит	-9.88817
▁63	-9.88875
▁размерами	-9.89089
▁натянула	-9.89116
▁состав	-9.89214
дней	-9.89263
▁жарко	-9.89277
▁рас	-9.89457
▁http	-9.8951
▁Леггинсы	-9.8951
▁состоянии	-9.8951
▁стирок	-9.8951
▁уверял	-9.8951
▁щиколотки	-9.89512
▁уровне	-9.89516
▁расстроило	-9.89548
▁маломерки	-9.89553
▁поставить	-9.89561
▁бирки	-9.89563
▁Большое	-9.89587
▁Маломерит	-9.89614
▁левый	-9.89616
▁кстати	-9.89635
За	-9.89637
они	-9.8964
▁своего	-9.89649
▁выбирала	-9.89659
▁вторую	-9.89675
▁мной	-9.89692
▁звезда	-9.89717
▁стороне	-9.89738
▁считаю	-9.89834
▁Вы	-9.89975
▁A	-9.90024
???	-9.90357
▁жилет	-9.90942
ил	-9.90985
▁хочет	-9.91023
ридется	-9.91082
▁поводу	-9.91084
▁лишь	-9.91097
▁ногах	-9.91117
номер	-9.91141
▁внимание	-9.9116
▁прождала	-9.91218
▁классно	-9.91347
▁голубой	-9.91389
▁ж	-9.91411
▁джемпер	-9.91523
▁шили	-9.9156
ила	-9.91571
▁ответа	-9.91732
▁большеват	-9.91764
надо	-9.92128
▁обманул	-9.9239
▁2-	-9.92436
▁назвать	-9.9266
▁оверсайз	-9.92663
моему	-9.92666
▁сложно	-9.92706
D	-9.92851
▁соответствие	-9.92895
▁каким	-9.93174
вал	-9.93436
▁did	-9.9352
Отличное	-9.936
про	-9.93601
ня	-9.93836
еле	-9.9393
▁з	-9.94013
вер	-9.94164
ась	-9.94222
c	-9.94225
▁совпадают	-9.94273
▁ярче	-9.94273
▁найти	-9.9428
▁my	-9.94292
▁пожалела	-9.94299
▁Вещь	-9.9431
▁Сначала	-9.94324
▁разочаровалась	-9.94335
▁отказалась	-9.9435
▁расцветка	-9.94353
ер	-9.94357
▁Лучше	-9.94364
шка	-9.94418
▁смотря	-9.94466
▁минусов	-9.9465
кр	-9.94782
▁открыт	-9.94789
▁))	-9.94821
пришло	-9.95007
вторых	-9.95021
нибудь	-9.95022
платье	-9.95031
ру	-9.95071
E	-9.95211
олностью	-9.95257
▁сделал	-9.95431
ф	-9.9562
Открыл	-9.95716
▁отношение	-9.95783
▁тк	-9.9581
▁Верх	-9.95839
▁Прошл	-9.9586
▁Шарф	-9.95912
▁высоких	-9.95912
▁улицу	-9.95912
▁вовремя	-9.95915
▁сантиметров	-9.95918
▁Надеюсь	-9.95935
▁общение	-9.95943
▁низкая	-9.95964
▁знала	-9.96012
▁однако	-9.9605
▁стирать	-9.9618
Заказ	-9.96186
*	-9.96435
Товар	-9.96698
▁Надо	-9.97
▁Посылк	-9.97315
▁флис	-9.97325
▁какого	-9.9745
жи	-9.97487
▁места	-9.97546
▁Описание	-9.97579
▁одежды	-9.97579
▁симпатичная	-9.97602
▁резиночку	-9.97602
▁жилетка	-9.97613
▁чёрные	-9.97617
читалась	-9.97627
▁пришол	-9.97629
▁Возможно	-9.97634
▁подкладки	-9.9764
▁завтраками	-9.97662
▁свитерок	-9.97784
▁ведь	-9.97812
▁кожа	-9.97864
▁тех	-9.97869
▁которое	-9.97897
▁выслали	-9.98146
▁84	-9.98192
ще	-9.98249
▁несоответствие	-9.98299
▁запас	-9.98526
тер	-9.98528
▁сказала	-9.98531
очка	-9.9858
▁108	-9.98622
▁моим	-9.98663
▁узко	-9.98666
▁ту	-9.98717
▁зад	-9.98893
▁портит	-9.98964
▁СОВЕТУЮ	-9.99274
▁горловине	-9.99274
▁тоньше	-9.99274
▁like	-9.99275
▁подойдут	-9.99275
▁пижамы	-9.99291
▁180	-9.99304
▁огорчена	-9.99312
▁писать	-9.99336
▁кнопки	-9.99343
▁майку	-9.99343
▁Хотела	-9.99343
▁честный	-9.99354
▁Обидно	-9.99373
▁67	-9.99397
▁повторно	-9.9956
▁надевать	-9.99598
▁адресу	-9.99711
▁новый	-9.99899
Все	-9.99973
▁ПО	-10.0001
▁попа	-10.0005
▁забрала	-10.0012
▁ка	-10.0012
ска	-10.002
больше	-10.0034
▁((((	-10.0035
▁заказывал	-10.0036
10	-10.0053
▁шифон	-10.0061
ия	-10.0061
ду	-10.0068
▁шерсть	-10.0095
▁приятна	-10.0097
▁высокий	-10.01
▁закончилась	-10.01
▁петли	-10.01
▁устраивает	-10.01
▁неверный	-10.0101
▁пять	-10.0101
g	-10.0102
▁огорчило	-10.0103
▁чулки	-10.0103
▁Мягкая	-10.0108
▁сорочка	-10.0125
▁отдала	-10.0127
▁почтово	-10.0139
▁пятнах	-10.0142
нее	-10.0151
▁низкое	-10.0153
▁ЭТО	-10.0162
▁вышивка	-10.0163
▁Нет	-10.0167
itao	-10.0183
смотрится	-10.0188
ков	-10.0192
▁заказал	-10.0196
ля	-10.02
▁начале	-10.021
▁пояса	-10.0229
вернули	-10.0243
▁маленьким	-10.0248
▁Китае	-10.0275
▁отправку	-10.0275
▁одежду	-10.0275
▁Халат	-10.0275
▁with	-10.0275
▁приходится	-10.0281
▁169	-10.0281
▁яркая	-10.0286
▁натуральный	-10.0286
▁Отправили	-10.0293
▁строчка	-10.0297
▁попы	-10.0301
▁скоро	-10.0314
11	-10.0355
ном	-10.0362
Цвет	-10.0366
▁400	-10.0377
запаха	-10.0387
▁разрез	-10.0393
иться	-10.0398
немного	-10.0401
его	-10.0409
мех	-10.0413
▁доставил	-10.0415
под	-10.0423
Ы	-10.0429
ком	-10.043
▁....	-10.0449
▁прав	-10.045
▁дешевый	-10.0454
▁оденешь	-10.0454
▁поменять	-10.0454
▁третий	-10.0454
▁толстые	-10.0455
▁Кардиган	-10.0456
▁узкий	-10.0457
▁дышит	-10.0458
▁блестит	-10.0458
▁удовольствием	-10.0458
▁соответственно	-10.0461
▁толстая	-10.0462
▁колено	-10.0462
▁вовсе	-10.0464
▁вмешал	-10.0465
▁затяжках	-10.0465
▁Ещ	-10.047
▁снаружи	-10.0475
▁счёт	-10.0485
▁Об	-10.0501
▁1000	-10.0503
раз	-10.0515
▁be	-10.0521
есть	-10.0528
быстрая	-10.0537
▁капюшоне	-10.0537
▁костюма	-10.0538
▁97	-10.0543
ru	-10.0543
всё	-10.0548
причем	-10.0554
▁скажу	-10.0566
ОБ	-10.0571
ши	-10.0574
▁пакете	-10.0596
▁подол	-10.0604
ОТ	-10.0609
Запаха	-10.0622
▁пр	-10.0625
▁21	-10.0632
▁замечательная	-10.0636
▁трех	-10.0636
▁радует	-10.0636
▁52-54	-10.0636
▁остальное	-10.0637
▁прислать	-10.0637
▁отправлять	-10.0637
▁теплую	-10.0638
▁маленького	-10.0638
▁Лосины	-10.0638
▁ТОВАР	-10.0639
▁Огромное	-10.064
▁Пуховик	-10.064
▁фигня	-10.0642
▁порядке	-10.0642
▁подростка	-10.0643
▁девушкам	-10.0647
▁бирка	-10.0652
▁Прислали	-10.0652
▁стало	-10.0658
ится	-10.0687
A	-10.0698
▁приехал	-10.0738
шел	-10.0752
▁мошенник	-10.0803
▁восторженны	-10.0821
▁компенсацию	-10.0821
▁люди	-10.0821
▁that	-10.0821
▁хрень	-10.0823
▁тоненький	-10.0824
▁подарить	-10.0824
▁исправить	-10.0825
▁января	-10.0827
▁хб	-10.0827
▁пакета	-10.0829
может	-10.0831
▁возвращает	-10.0833
▁надеялась	-10.0833
▁Дошло	-10.0839
▁шикарно	-10.084
▁64	-10.0841
▁нашей	-10.0859
▁моё	-10.0862
▁н	-10.0863
нет	-10.0867
▁74	-10.0875
▁Заказывали	-10.0877
▁им	-10.0888
▁ноге	-10.0896
▁маловаты	-10.0915
конечно	-10.0922
▁обработан	-10.0926
r	-10.0935
▁синтепон	-10.0965
▁прилично	-10.0972
ба	-10.0974
▁ваш	-10.0986
▁120	-10.0993
▁отправляет	-10.1004
для	-10.1005
▁тесно	-10.1005
▁Китай	-10.1009
▁горловины	-10.101
▁девочку	-10.101
▁жмёт	-10.101
▁квартиры	-10.101
▁изначально	-10.101
▁грязная	-10.1011
▁тугая	-10.1012
▁Обычн	-10.1012
▁155	-10.1014
▁возвращают	-10.1015
▁тряпочка	-10.1015
▁нитках	-10.1017
▁заняла	-10.1018
▁Расстроена	-10.1018
▁взяли	-10.1019
▁Дошл	-10.1021
▁разу	-10.103
▁поменьше	-10.1032
си	-10.1032
пи	-10.1052
разу	-10.1069
▁лиф	-10.1077
▁!!	-10.1096
▁рукавами	-10.1106
▁шве	-10.1123
▁62	-10.1158
лю	-10.1159
▁смс	-10.1159
▁боковы	-10.1163
ги	-10.1177
▁нужны	-10.1194
▁последнего	-10.1202
▁отсутствует	-10.1202
▁сняла	-10.1203
▁шее	-10.1203
▁пижаму	-10.1205
▁штанины	-10.1206
▁дешёвая	-10.1207
▁маленькой	-10.1208
▁Маломерка	-10.1208
▁Молния	-10.121
▁статус	-10.121
▁45	-10.1211
▁убрать	-10.1211
▁искусственный	-10.1212
▁ушить	-10.1214
▁голая	-10.1215
▁Потом	-10.1218
▁длинноваты	-10.1231
▁сделано	-10.1234
▁виновата	-10.1235
▁жене	-10.1242
▁68	-10.1246
▁Размеры	-10.1253
▁стали	-10.1261
▁1.5	-10.1268
лен	-10.1285
будто	-10.131
хорошо	-10.131
▁шт	-10.1327
▁внешне	-10.1333
Ч	-10.1337
▁Уж	-10.1339
▁Вернул	-10.1344
▁178	-10.1347
▁джинс	-10.1387
▁сестре	-10.1392
▁натянуть	-10.1395
▁мусор	-10.1396
▁штанов	-10.1398
▁сетки	-10.1398
▁правильный	-10.1398
▁шире	-10.1398
▁Плюс	-10.1399
▁кусок	-10.1399
▁появились	-10.1401
▁утонула	-10.1401
▁отдавать	-10.1401
▁боюсь	-10.1403
▁беда	-10.1405
▁никому	-10.1407
▁давно	-10.1408
▁обычные	-10.141
▁Сильно	-10.1415
▁тянул	-10.1415
ите	-10.1416
▁получше	-10.1423
▁читала	-10.143
ыми	-10.1432
вый	-10.1437
▁мягкое	-10.1446
90	-10.1451
▁72	-10.1472
ски	-10.1504
пе	-10.1527
▁большевата	-10.1535
Мой	-10.1535
▁600	-10.1536
шито	-10.1548
▁говорил	-10.1576
▁горло	-10.1582
▁слов	-10.1586
▁Трусы	-10.1598
▁близко	-10.1598
▁расходится	-10.1598
▁отслеживании	-10.1598
▁связываться	-10.1598
▁обрезать	-10.1598
▁светлее	-10.16
▁выкинуть	-10.16
▁работает	-10.16
▁Везде	-10.1601
▁информации	-10.1601
▁сходится	-10.1602
▁четыре	-10.1602
▁It	-10.1605
▁Видимо	-10.1608
▁ПРОДАВЕЦ	-10.161
▁потраченных	-10.1611
▁пропал	-10.1612
▁нареканий	-10.1619
шла	-10.1624
▁шикарное	-10.164
I	-10.1663
ношу	-10.1675
ее	-10.169
очки	-10.169
▁заказу	-10.1699
думаю	-10.1717
▁решили	-10.1718
чтобы	-10.1722
▁сделана	-10.1728
▁заказы	-10.173
▁надела	-10.1741
▁потраченны	-10.1788
ща	-10.1793
▁минут	-10.1793
▁доволен	-10.1802
▁чашка	-10.1802
▁дополню	-10.1802
▁растягивается	-10.1802
▁отзывчивый	-10.1802
▁оценить	-10.1803
▁ровный	-10.1804
▁кожу	-10.1804
▁глубокий	-10.1805
▁171	-10.1805
▁черную	-10.1805
▁подлиннее	-10.1807
▁удобный	-10.181
▁стирала	-10.1838
▁106	-10.184
ut	-10.184
▁1.	-10.1861
Так	-10.1925
▁82	-10.193
мо	-10.1937
▁Закаж	-10.1959
▁похожи	-10.1975
ОЙ	-10.1988
▁свободна	-10.2
▁любит	-10.2
пу	-10.2008
▁бёдер	-10.201
▁оценка	-10.201
▁тряпку	-10.201
▁юбке	-10.201
▁сядет	-10.201
▁лежит	-10.201
▁отличаются	-10.201
▁талией	-10.2011
▁туда	-10.2012
▁ощущениям	-10.2016
▁делала	-10.2023
▁живую	-10.2024
▁ночнушка	-10.2027
▁Кружево	-10.2029
▁продовец	-10.2033
▁наоборот	-10.2033
▁большую	-10.2036
▁24	-10.2039
▁мерила	-10.2053
нь	-10.2071
▁Эти	-10.2093
торой	-10.2105
взяла	-10.2135
Заказывала	-10.2135
посылка	-10.2135
▁прод	-10.2166
▁Рукав	-10.2185
ывать	-10.2185
▁печально	-10.2196
▁Само	-10.2208
▁плечам	-10.2211
▁дыра	-10.2213
▁мол	-10.2213
▁ТАК	-10.2219
▁Внутри	-10.2223
▁бледный	-10.2223
▁первого	-10.2223
▁product	-10.2223
▁общался	-10.2223
▁отслеживанию	-10.2223
▁Красивая	-10.2223
▁примерки	-10.2224
▁прилипает	-10.2225
▁стоило	-10.2225
▁продать	-10.2227
▁среднего	-10.2229
▁Фасон	-10.223
▁сползают	-10.223
▁нежный	-10.223
▁ладно	-10.2234
▁ДЕНЬГИ	-10.2234
▁свободный	-10.2234
▁ЧТО	-10.2234
▁СПАСИБО	-10.2236
▁делает	-10.2242
▁Xl	-10.2243
▁сойдет	-10.2245
▁году	-10.2249
▁Питера	-10.2253
▁Довольна	-10.2254
приятная	-10.227
▁плеча	-10.2274
!!!!!!!	-10.2277
▁широкое	-10.2294
▁fro	-10.2303
p	-10.2322
ог	-10.2347
торчат	-10.2352
▁66	-10.2365
▁чувство	-10.2367
▁обе	-10.2375
▁дела	-10.2392
▁пошит	-10.2419
▁53	-10.2433
чик	-10.2435
▁time	-10.2436
ery	-10.2438
▁средства	-10.244
▁does	-10.244
▁копейки	-10.244
▁служба	-10.244
▁Москве	-10.244
▁погоду	-10.2441
▁внутренней	-10.2441
▁продлить	-10.2441
▁обещаниями	-10.2441
▁колючая	-10.2441
▁потерялся	-10.2442
▁почтой	-10.2442
▁рисунка	-10.2445
▁карманов	-10.2446
▁упаковка	-10.2448
▁серого	-10.2454
▁написать	-10.2458
▁зашить	-10.2463
12	-10.2472
▁магазинах	-10.2475
▁чудо	-10.248
(((((	-10.2482
ются	-10.2482
▁мнется	-10.2486
▁РАЗМЕР	-10.2499
▁пошла	-10.25
▁t	-10.2502
▁as	-10.2504
▁мягко	-10.2517
правда	-10.2535
er	-10.2536
са	-10.2536
ск	-10.2553
ает	-10.2556
▁нибудь	-10.256
▁указал	-10.258
▁брали	-10.2588
читав	-10.2589
ками	-10.2602
▁своим	-10.2602
▁ибо	-10.2622
Б	-10.2633
▁пришито	-10.2641
▁37	-10.2652
▁принес	-10.2653
▁затяжка	-10.2658
▁наличии	-10.2663
▁лицевой	-10.2663
▁огонь	-10.2663
ill	-10.2663
▁описания	-10.2663
▁краска	-10.2664
▁шьют	-10.2664
▁помойку	-10.2664
▁получения	-10.2665
▁толстый	-10.2666
▁вторые	-10.2666
▁маечка	-10.2666
▁бирок	-10.2666
▁отвратительная	-10.2666
▁наконец	-10.2668
▁кофтой	-10.2668
▁несуразно	-10.2673
▁тянуться	-10.2675
▁оплатила	-10.2675
▁тишина	-10.2675
ния	-10.2691
▁вниз	-10.2697
▁топик	-10.2701
кий	-10.2705
▁ф	-10.2707
ут	-10.2733
▁споре	-10.2734
▁налезли	-10.2744
▁товару	-10.2788
синий	-10.2803
э	-10.281
ёл	-10.2824
▁плече	-10.2824
вато	-10.283
руб	-10.2866
▁P	-10.2867
al	-10.2867
▁Купила	-10.289
▁водолазки	-10.289
▁удалось	-10.289
▁первая	-10.289
▁delivery	-10.289
▁быстрее	-10.289
▁зимняя	-10.289
▁колготок	-10.289
▁пижамка	-10.2891
▁отменить	-10.2893
▁ребенку	-10.2893
▁чашки	-10.2893
▁ПРОДАВЦА	-10.2895
▁грязный	-10.2895
▁тоненькие	-10.2895
▁этикетки	-10.2897
▁goods	-10.2898
▁потеряла	-10.2898
▁манжеты	-10.29
▁ерунда	-10.29
▁перестал	-10.2901
▁синие	-10.2906
▁лёгкая	-10.2906
▁покрой	-10.2909
▁3-	-10.2917
▁короткими	-10.2917
ние	-10.2934
ца	-10.2936
▁нескольки	-10.2941
▁ногу	-10.2951
Ш	-10.2965
▁сторона	-10.2965
▁нету	-10.2977
▁полоска	-10.2982
думала	-10.2984
▁упакован	-10.299
роде	-10.3064
Мне	-10.3067
▁котором	-10.3077
▁комбинезон	-10.308
ься	-10.3084
нюю	-10.309
▁друг	-10.3097
▁Почт	-10.3099
▁нашла	-10.3115
▁мега	-10.3122
ёт	-10.3122
▁мешком	-10.3123
▁шерсти	-10.3123
▁жмет	-10.3123
▁расходятся	-10.3123
▁недостатки	-10.3123
▁находится	-10.3123
▁упаковке	-10.3123
▁сетку	-10.3123
▁Нужно	-10.3123
▁июня	-10.3123
▁бирке	-10.3123
▁нервы	-10.3123
▁девушку	-10.3123
▁выбрать	-10.3123
▁дефектов	-10.3125
▁потерялась	-10.3126
▁Однозначно	-10.3126
▁Чуть	-10.3126
▁3,5	-10.3126
▁серые	-10.3126
▁продовца	-10.3128
▁согласилась	-10.313
▁потратила	-10.3131
▁Берите	-10.3132
▁дырками	-10.3135
оч	-10.3136
▁халатик	-10.3139
од	-10.3139
▁напоминает	-10.3143
▁ЗА	-10.3145
▁Низ	-10.3158
▁человека	-10.3158
▁вряд	-10.3167
50	-10.3172
▁лета	-10.3174
▁наполнитель	-10.318
овая	-10.3185
благодаря	-10.3186
▁частично	-10.3188
▁цветом	-10.3198
▁Пока	-10.3208
▁нереально	-10.3209
▁помог	-10.3212
▁носила	-10.3215
▁отправит	-10.3216
▁данно	-10.3246
▁платьем	-10.3254
дала	-10.3259
З	-10.3261
крытия	-10.3267
▁3/4	-10.3271
кофта	-10.3272
получила	-10.3273
жаль	-10.3275
фото	-10.3277
▁мо	-10.3291
ейчас	-10.3292
▁поступил	-10.3316
длина	-10.3326
▁интересно	-10.3326
▁выход	-10.3345
▁большемерит	-10.3361
▁вмешательств	-10.3361
▁наружу	-10.3361
▁хватит	-10.3361
▁футболке	-10.3361
▁толще	-10.3361
▁вещей	-10.3361
▁странная	-10.3362
▁Быстро	-10.3365
▁сбоку	-10.3368
▁вопросов	-10.3368
▁Жду	-10.3369
▁денежны	-10.3371
ел	-10.3372
▁середине	-10.3373
▁боялась	-10.3375
▁дочь	-10.3379
▁31	-10.3386
▁заплатила	-10.3394
▁are	-10.3399
▁проблему	-10.3401
▁ждали	-10.3402
▁76	-10.3402
▁105	-10.341
▁разного	-10.3411
▁Носк	-10.3416
▁рукавом	-10.3419
42	-10.3429
▁животе	-10.3437
DE	-10.344
сколько	-10.3445
▁обещали	-10.3474
▁вторых	-10.3492
чка	-10.3494
ясь	-10.3498
▁Тако	-10.3502
▁воротнике	-10.3504
▁туго	-10.3506
▁ними	-10.3506
T	-10.3507
▁выполнен	-10.3509
тонкая	-10.3516
пришли	-10.3517
Заказала	-10.3517
▁полнит	-10.3521
ными	-10.3525
сшито	-10.3526
потому	-10.3528
▁лифчик	-10.3529
КА	-10.3532
сидит	-10.3534
сталась	-10.3549
се	-10.3561
▁Мо	-10.3569
▁факт	-10.3569
▁говорит	-10.3575
▁Отвратительно	-10.3576
вот	-10.3589
ается	-10.3592
▁полном	-10.36
▁дырочка	-10.3602
ридётся	-10.3603
▁помощь	-10.3605
▁тряпки	-10.3605
▁умничка	-10.3605
▁штанах	-10.3605
▁истечени	-10.3605
▁отстирывается	-10.3605
▁второе	-10.3605
▁относительно	-10.3605
▁продавать	-10.3606
▁икры	-10.3607
▁трать	-10.3608
▁бледно	-10.3608
▁хорошем	-10.3608
▁шапки	-10.3608
▁чашечки	-10.3609
▁белого	-10.3609
▁одинаковые	-10.3609
▁подшивать	-10.3609
▁которого	-10.361
▁кнопка	-10.3612
▁сидеть	-10.3613
▁белыми	-10.3616
▁тела	-10.3617
▁ширина	-10.3617
▁совету	-10.3619
▁внимательны	-10.3621
▁словом	-10.3621
▁предлагал	-10.3622
▁всяки	-10.3625
▁города	-10.3627
▁коричневый	-10.3628
▁порадовала	-10.363
Й	-10.366
▁надпись	-10.3672
▁име	-10.3672
▁пуст	-10.3681
▁сказали	-10.3687
▁пре	-10.3749
недели	-10.3769
09	-10.3773
▁будьт	-10.3781
▁ждал	-10.3786
дет	-10.3815
ар	-10.382
▁Санкт	-10.3855
▁Трусики	-10.3855
▁Упаковка	-10.3855
▁картинкой	-10.3855
▁трэк	-10.3855
▁трёх	-10.3855
▁поднять	-10.3855
▁отказывался	-10.3855
▁конец	-10.3855
▁тонкой	-10.3855
▁Россию	-10.3855
▁остались	-10.3856
▁выброс	-10.3856
▁застегивается	-10.3857
▁фигуры	-10.3857
▁аккуратный	-10.3859
▁поддержки	-10.3859
▁Почему	-10.386
▁дефектом	-10.3861
▁садится	-10.3861
▁зацепки	-10.3861
▁Карманы	-10.3862
▁причём	-10.3865
▁ожидание	-10.3865
▁Просила	-10.3865
▁постирать	-10.3866
▁Жена	-10.3868
▁Одна	-10.3871
▁look	-10.3873
▁просьбе	-10.3885
98	-10.3887
▁Отвратительное	-10.3895
бе	-10.3914
▁штанина	-10.3916
бо	-10.3921
▁самы	-10.3923
ело	-10.3938
▁91	-10.3939
▁опыт	-10.3946
▁мог	-10.3946
▁живота	-10.3956
▁па	-10.3973
▁Добр	-10.3974
▁толст	-10.3987
приятный	-10.3989
▁точное	-10.4008
нная	-10.4016
▁Сделал	-10.4024
▁др	-10.4026
пришел	-10.4029
▁11.11,	-10.4029
▁Пошит	-10.4057
▁бюстгальтер	-10.4061
▁плечо	-10.4067
юсь	-10.4067
▁отправила	-10.4081
▁отслеживание	-10.4101
▁39	-10.4102
▁просит	-10.4109
▁Боди	-10.4111
▁градусов	-10.4111
▁службу	-10.4111
▁ширине	-10.4111
▁ширину	-10.4111
▁dress	-10.4111
▁желает	-10.4111
▁собираются	-10.4111
▁спина	-10.4111
▁болтается	-10.4111
▁Красивый	-10.4112
▁толстовку	-10.4114
▁шапочка	-10.4115
▁толстовки	-10.4116
▁формы	-10.4116
▁подходят	-10.4116
▁дырочки	-10.4117
▁дырок	-10.4117
▁отдам	-10.4119
▁заметила	-10.4119
▁черного	-10.4119
▁руку	-10.4122
▁Оно	-10.4125
▁Подошло	-10.4128
▁слой	-10.4128
жа	-10.4136
▁тесновато	-10.4145
▁обнаружила	-10.4146
k	-10.4149
▁шить	-10.4149
▁Под	-10.4152
▁сделали	-10.4155
▁ооооочень	-10.4157
▁доставлено	-10.4171
▁Будь	-10.4173
▁магазину	-10.419
▁сойдёт	-10.4213
▁пуговица	-10.4222
▁небольшая	-10.4223
▁сторон	-10.4234
▁оочень	-10.4239
▁нужна	-10.4282
хоть	-10.4286
▁объеме	-10.4292
▁дали	-10.4303
▁проигнорировал	-10.4345
▁знает	-10.4347
▁истек	-10.4353
▁таможне	-10.4354
▁письмо	-10.4357
▁Отправил	-10.4358
▁дефект	-10.4358
▁купон	-10.4366
▁Горловина	-10.4374
▁жуткая	-10.4374
▁письма	-10.4374
▁службой	-10.4374
▁спинке	-10.4374
▁внешни	-10.4374
▁кофточку	-10.4374
▁покупок	-10.4374
▁выбросить	-10.4375
▁шикарный	-10.4375
▁облегает	-10.4375
▁дешёвый	-10.4376
▁чёрную	-10.4378
▁акрил	-10.4378
▁прозрачный	-10.4378
▁бракованный	-10.4378
▁Воротник	-10.4381
▁Московск	-10.4382
ОМ	-10.4383
▁one	-10.4384
▁Жалко	-10.4385
▁учитывая	-10.4386
▁бомба	-10.4386
касается	-10.4389
▁оперативно	-10.4389
▁полно	-10.4395
▁значит	-10.4395
▁2017	-10.4402
▁непонятный	-10.4405
ОГ	-10.4406
▁Упаковано	-10.441
▁выброшенные	-10.4411
▁ничем	-10.4411
▁вышел	-10.4412
▁крутой	-10.4415
▁качественное	-10.4417
со	-10.4418
▁могут	-10.4441
▁so	-10.4441
▁отдельно	-10.4447
сы	-10.4479
▁too	-10.4489
44	-10.449
ри	-10.4505
▁полу	-10.4517
дела	-10.452
▁пошиты	-10.4526
просвечивает	-10.4551
Буду	-10.4556
выглядит	-10.4556
куртка	-10.4556
долго	-10.456
▁де	-10.4567
▁чему	-10.4568
48	-10.4571
▁одним	-10.4575
f	-10.4584
▁большеваты	-10.4585
▁заявлен	-10.4589
ÐoÐ	-10.4592
кле	-10.462
друг	-10.463
▁отслуживался	-10.4644
▁таблицу	-10.4644
▁Носочки	-10.4644
▁улице	-10.4644
▁жуть	-10.4644
▁сезон	-10.4644
▁ожидалось	-10.4645
▁маленькую	-10.4645
▁холодную	-10.4645
▁примерке	-10.4645
▁топорщатся	-10.4645
▁замечательный	-10.4646
▁окончания	-10.4646
▁Совершен	-10.4647
▁полосы	-10.4648
▁безумно	-10.4648
▁разница	-10.4648
▁верный	-10.4649
▁дольше	-10.465
▁стирку	-10.4651
илась	-10.4653
который	-10.4653
▁целый	-10.4653
▁могли	-10.4656
▁Перед	-10.4656
▁уверена	-10.4657
▁вместе	-10.4658
▁носили	-10.4659
▁свободные	-10.466
лную	-10.4684
▁ты	-10.4691
▁изнутри	-10.4693
▁имеется	-10.4694
▁купальник	-10.4699
92	-10.4701
▁разочаровало	-10.4704
▁впервые	-10.4704
▁Кое	-10.471
▁Кр	-10.4719
▁неплохие	-10.4728
-2	-10.4728
либо	-10.4734
села	-10.4738
▁той	-10.4743
▁цветах	-10.4748
-90	-10.476
▁73	-10.4762
▁Два	-10.4763
▁плотное	-10.4765
▁700	-10.4768
▁большевато	-10.4792
тянут	-10.4798
▁T	-10.48
потом	-10.4821
ний	-10.4833
мягкая	-10.4834
мягкий	-10.4834
талия	-10.4838
▁совпал	-10.488
▁шорт	-10.491
▁Итог	-10.4916
▁мае	-10.4919
1⁄4	-10.4922
▁Здравствуйте	-10.4922
▁потрачены	-10.4922
▁мятая	-10.4922
▁long	-10.4922
▁Короткие	-10.4922
▁получу	-10.4922
▁теплее	-10.4922
▁продавцы	-10.4923
▁Короткая	-10.4923
▁перешить	-10.4923
▁дважды	-10.4923
▁Однако	-10.4923
▁худые	-10.4923
▁прикольная	-10.4924
▁Три	-10.4924
▁красится	-10.4924
▁образом	-10.4925
▁Честно	-10.4926
▁половина	-10.4926
▁Хо	-10.4927
ней	-10.4928
▁застегнуть	-10.4928
▁отправлена	-10.4929
▁значительно	-10.4929
нят	-10.4931
один	-10.4931
▁мелкие	-10.4936
▁разочаровал	-10.4943
▁куча	-10.4944
▁полоса	-10.4945
▁решить	-10.495
▁положить	-10.495
▁выходил	-10.4951
ОГО	-10.4959
▁небольшие	-10.4963
▁наша	-10.4964
▁новой	-10.4986
▁приехала	-10.4997
▁товаре	-10.4999
коло	-10.5014
▁ш	-10.502
▁157	-10.5032
▁замечательное	-10.5035
▁некачественно	-10.5043
▁джинсов	-10.5058
кая	-10.5067
▁кармана	-10.5076
▁жена	-10.5096
▁средне	-10.5107
post	-10.5115
M	-10.5118
Материал	-10.512
Как	-10.5122
Г	-10.5124
пришлось	-10.5124
вообщем	-10.5131
▁виноват	-10.5156
ень	-10.5169
▁курьерск	-10.5183
▁отказал	-10.5188
▁пообещал	-10.5192
▁нежно	-10.5194
▁длинны	-10.5199
▁держат	-10.52
▁покупаю	-10.5202
▁коротка	-10.5206
▁девочек	-10.5208
▁людей	-10.5208
▁осадок	-10.5208
▁подмышках	-10.5208
▁фотографиях	-10.5208
▁сказано	-10.5208
▁крутые	-10.5208
▁пушистый	-10.5209
▁3-4	-10.5209
▁коленях	-10.5209
▁AliExpress	-10.5209
▁мамы	-10.5209
▁устроило	-10.521
▁161	-10.5211
▁разошлись	-10.5212
▁Капюшон	-10.5212
▁покупку	-10.5212
▁почтовый	-10.5213
▁затяжек	-10.5213
▁Брал	-10.5217
▁прежде	-10.5217
▁юбочка	-10.5218
▁осени	-10.5218
▁джинсами	-10.5219
▁общего	-10.5219
▁наклейка	-10.5222
▁ящик	-10.5224
переди	-10.523
▁Эта	-10.523
▁треку	-10.5232
бы	-10.5233
▁83	-10.5234
▁Заказали	-10.524
▁смотрите	-10.5243
▁вшита	-10.5258
▁штук	-10.5264
▁упакована	-10.5269
▁приличное	-10.527
▁верно	-10.5271
80	-10.5276
▁волосы	-10.5281
▁великоваты	-10.5284
нии	-10.5285
лу	-10.5294
▁Ее	-10.5303
or	-10.5306
▁плеч	-10.535
▁Качеством	-10.5372
ела	-10.5372
ился	-10.5376
кое	-10.5396
▁выбор	-10.5413
Платье	-10.5414
ско	-10.5424
месяца	-10.5426
▁даче	-10.5437
▁доставлена	-10.5455
▁симпатично	-10.5463
нт	-10.5466
▁лучшее	-10.5483
▁пи	-10.55
▁small	-10.5502
▁Боле	-10.5502
Отправка	-10.5502
▁спины	-10.5502
▁компенсации	-10.5502
▁рисунком	-10.5502
▁легкий	-10.5502
▁рисунке	-10.5502
▁Отвратительный	-10.5502
▁понять	-10.5502
▁Упакован	-10.5502
▁Классные	-10.5503
▁дерьмо	-10.5503
▁шикарная	-10.5504
▁никуда	-10.5505
▁вышло	-10.5505
▁Тонкие	-10.5506
▁резиночка	-10.5506
▁остаются	-10.5506
▁50%	-10.5506
▁бока	-10.5507
▁косяков	-10.5508
▁пытался	-10.5509
шки	-10.5509
▁выиграла	-10.551
▁Писал	-10.5512
▁руками	-10.5512
▁Модель	-10.5514
ust	-10.5521
▁внимательный	-10.5525
▁коротким	-10.5526
енько	-10.5528
▁хороша	-10.5531
су	-10.5532
▁любом	-10.5537
▁at	-10.5541
▁35	-10.5543
▁пыталась	-10.5545
▁указаны	-10.5546
▁росс	-10.5562
ник	-10.5575
▁Полн	-10.559
ель	-10.5599
100	-10.5603
▁порван	-10.5629
ительно	-10.5635
▁рук	-10.5663
советую	-10.5665
шу	-10.5678
▁картинка	-10.568
ничего	-10.5718
▁данном	-10.5726
▁ряд	-10.574
▁5+	-10.5741
ец	-10.5743
▁указана	-10.5762
▁след	-10.5791
▁получение	-10.5793
▁Просвечивает	-10.58
▁начали	-10.5803
▁катышках	-10.5805
▁скидкой	-10.5805
▁этикетке	-10.5805
▁новогодни	-10.5805
▁половины	-10.5805
▁нравятся	-10.5805
▁АлиЭкспресс	-10.5805
▁получении	-10.5805
▁11.11.17	-10.5806
▁чужой	-10.5806
▁Жилет	-10.5806
▁девушки	-10.5806
▁оставить	-10.5807
▁браслетик	-10.5807
▁серую	-10.5807
▁дырой	-10.5807
▁дачу	-10.5807
▁добавлю	-10.5807
▁Курточк	-10.5809
▁Тонкий	-10.5809
▁прошел	-10.581
енег	-10.5811
▁кроя	-10.5811
▁буквально	-10.5812
▁Шов	-10.5813
▁пришили	-10.5815
▁давольна	-10.5815
▁ошибка	-10.582
▁Хотелось	-10.582
▁розовая	-10.582
▁ранее	-10.5824
▁снизила	-10.5825
▁пройма	-10.5826
▁животик	-10.5837
▁жесть	-10.584
▁ночная	-10.5843
▁заявленным	-10.5854
ому	-10.5862
▁Много	-10.5865
▁налезла	-10.587
▁форма	-10.5871
тем	-10.5874
▁плюсы	-10.588
ват	-10.5882
▁Полно	-10.5889
пустя	-10.5909
▁177	-10.5912
▁НИ	-10.5919
▁Попросил	-10.5925
▁одинаково	-10.5926
-95	-10.5938
▁Вся	-10.5941
▁несмотря	-10.5951
▁очки	-10.5955
▁код	-10.5974
короче	-10.5975
еще	-10.5982
▁Блуз	-10.6001
шь	-10.6006
жал	-10.6008
плохо	-10.6008
▁ХХ	-10.6028
розовый	-10.6029
Это	-10.6032
ской	-10.6058
▁Кто	-10.6085
▁подтвердил	-10.6089
чат	-10.6099
▁вшит	-10.6101
▁смешно	-10.6114
▁грубо	-10.6117
▁after	-10.6117
▁СПОР	-10.6118
▁грязные	-10.6118
▁спб	-10.6118
▁резинке	-10.6118
▁красивее	-10.6118
▁дырку	-10.6118
▁отреагировал	-10.6119
▁больший	-10.6119
▁единый	-10.6119
▁ordered	-10.612
▁заявленного	-10.612
▁ответственный	-10.6121
▁Ворот	-10.6121
▁КАК	-10.6121
▁УЖАС	-10.6121
▁четкий	-10.6121
▁растянется	-10.6122
▁плащ	-10.6123
При	-10.6123
▁иметь	-10.6123
▁девушке	-10.6124
▁рядом	-10.6124
▁гавно	-10.6125
▁серая	-10.613
▁Никому	-10.6131
▁общаться	-10.6131
▁Заказывайте	-10.614
▁неприятного	-10.6144
▁отказали	-10.6151
пар	-10.6151
▁летнего	-10.6156
вид	-10.6162
▁зеленый	-10.6163
▁отдельное	-10.6165
▁попробую	-10.6165
▁первые	-10.6168
казалась	-10.6176
▁%	-10.6178
▁плотной	-10.6187
▁спросила	-10.6197
верху	-10.6204
АЯ	-10.6205
▁теплое	-10.6206
ично	-10.6209
али	-10.6214
пробую	-10.6218
▁пошиву	-10.623
▁нужного	-10.6234
........	-10.6234
▁ТО	-10.6262
▁прибыла	-10.6265
▁написали	-10.6273
▁комплекте	-10.6276
▁шелк	-10.6288
46	-10.6294
▁просьб	-10.63
▁верхне	-10.6302
70	-10.6318
мал	-10.6328
b	-10.6329
ишь	-10.6332
▁57	-10.6335
ён	-10.6346
▁90,	-10.6348
супер	-10.6353
▁низк	-10.6355
▁над	-10.6361
ения	-10.6363
▁Прождал	-10.637
▁человек	-10.6371
▁плох	-10.6382
▁ло	-10.6388
▁э	-10.641
▁девушка	-10.6412
▁свитере	-10.6418
▁?	-10.6422
▁исчез	-10.6432
▁бледнее	-10.644
▁Идеально	-10.644
▁оттенком	-10.644
▁претензии	-10.644
▁приятен	-10.644
▁задирается	-10.644
▁Пояс	-10.644
▁выйти	-10.644
▁детей	-10.6441
▁заново	-10.6441
▁рекомендовать	-10.6441
▁отслеживаться	-10.6441
▁оказывается	-10.6442
▁половиной	-10.6442
▁щиколотку	-10.6442
▁здорово	-10.6442
▁игнорировал	-10.6443
▁переписки	-10.6443
▁причину	-10.6444
▁159	-10.6444
▁Приятный	-10.6445
▁блестящая	-10.6445
▁Вобщем	-10.6445
▁бывает	-10.6446
▁категорически	-10.6446
▁одежда	-10.6448
▁Срок	-10.6448
▁зимний	-10.6448
▁ххл	-10.645
▁бордовый	-10.6451
▁чуток	-10.6451
▁распродаже	-10.6451
▁будем	-10.6451
▁остальные	-10.6451
▁просьбу	-10.6453
▁отслеживанием	-10.646
▁фигура	-10.6467
▁спать	-10.6467
▁точнее	-10.6474
▁звёзды	-10.6476
▁трудно	-10.6484
▁немножко	-10.6497
очек	-10.6498
▁фу	-10.6499
ch	-10.6508
▁трикотажа	-10.6511
▁сборит	-10.6525
▁больш	-10.6526
▁заказан	-10.653
▁Сели	-10.6534
▁бо	-10.6542
пер	-10.6569
▁джинса	-10.6571
ию	-10.6579
казался	-10.6581
очку	-10.6601
▁китайски	-10.6611
▁ответили	-10.6635
▁весит	-10.6645
h	-10.6645
▁!!!!!	-10.6645
▁ХЛ	-10.6648
▁Ж	-10.667
▁уши	-10.6682
берите	-10.6685
продавца	-10.6685
продавцу	-10.6685
Продавцу	-10.6686
▁42-44,	-10.6717
ость	-10.6745
ек	-10.6746
▁огромным	-10.6749
вой	-10.675
▁налез	-10.6754
▁длинным	-10.6765
▁СДЭК	-10.6773
▁двум	-10.6773
▁курткой	-10.6773
▁отправке	-10.6773
▁переделывать	-10.6773
▁расцветки	-10.6773
▁picture	-10.6773
▁подойти	-10.6773
▁посылке	-10.6774
▁идти	-10.6774
▁подмышками	-10.6774
▁кофточки	-10.6774
▁колючий	-10.6774
▁молчит	-10.6774
▁нелепо	-10.6774
▁компанией	-10.6774
▁красную	-10.6774
▁слабая	-10.6774
▁черная	-10.6774
▁подчеркивает	-10.6774
йтесь	-10.6774
▁выходит	-10.6775
▁изнанки	-10.6775
▁галимая	-10.6775
▁белом	-10.6776
▁Никогда	-10.6776
▁начесом	-10.6776
▁белой	-10.6776
▁Жилетка	-10.6777
▁рубля	-10.6777
▁Thank	-10.6777
▁розового	-10.6779
▁красные	-10.6779
▁двери	-10.6779
▁потеряли	-10.678
▁уговаривал	-10.678
▁фиолетовый	-10.6781
▁Магазин	-10.6781
▁Скорее	-10.6781
▁розовую	-10.6781
▁Вырез	-10.6781
▁Решила	-10.6781
▁решения	-10.6782
▁воде	-10.6782
▁следы	-10.6783
▁милая	-10.6785
▁точности	-10.6787
▁отказались	-10.6789
▁желтый	-10.6791
▁тонковата	-10.6793
▁синтетический	-10.6795
▁снижаю	-10.6801
▁зима	-10.6804
▁Красноярска	-10.6816
▁теплой	-10.6824
▁пункт	-10.6825
▁вставки	-10.6826
▁хх	-10.6833
типо	-10.6837
▁постирала	-10.6837
▁отправлено	-10.6856
▁no	-10.6864
бу	-10.6869
▁идут	-10.6871
▁пуха	-10.6881
▁нечего	-10.6899
▁Хоч	-10.6903
ужас	-10.6926
▁случай	-10.6927
▁написан	-10.6937
▁некачественный	-10.6942
▁Открывал	-10.6943
▁прямой	-10.6946
стро	-10.6946
▁виден	-10.6951
▁78	-10.6953
ЛИ	-10.6953
▁товары	-10.6958
шили	-10.6978
аются	-10.6987
скольк	-10.6997
▁ноль	-10.6999
▁незнаю	-10.6999
ский	-10.7015
▁34	-10.7058
20	-10.7069
▁Питер	-10.7069
▁вернулись	-10.7072
▁Куртк	-10.7074
▁пара	-10.7083
en	-10.7097
▁зацепка	-10.7104
▁стрелка	-10.7104
▁нитка	-10.7108
кие	-10.7116
▁return	-10.7117
▁description	-10.7118
▁нравиться	-10.7118
▁Зря	-10.7118
▁общались	-10.7118
▁связывайтесь	-10.7118
▁сервис	-10.7118
▁ожиданий	-10.7118
▁Российский	-10.7118
▁четко	-10.7118
▁received	-10.7118
▁ножницами	-10.7119
▁машинке	-10.7119
▁икрах	-10.7119
▁поднимается	-10.7119
▁приталенная	-10.7119
▁краски	-10.712
▁худеньких	-10.712
▁катышками	-10.712
▁неправильный	-10.712
▁вытачки	-10.7121
▁осталось	-10.7121
▁сумма	-10.7121
▁рассчитывала	-10.7122
▁мусорку	-10.7122
▁посередине	-10.7123
▁Написано	-10.7123
▁высокие	-10.7123
▁мятый	-10.7123
▁резиночки	-10.7123
▁держатся	-10.7124
▁Посмотрим	-10.7126
▁многие	-10.7126
▁розовые	-10.7126
▁стирка	-10.7126
▁153	-10.7127
▁комбез	-10.7131
▁фактически	-10.7133
▁шуба	-10.7133
▁Плечи	-10.7134
▁НЕТ	-10.7135
▁спокойно	-10.7135
▁Красивое	-10.7136
▁говорят	-10.7138
▁черное	-10.7146
▁ч	-10.7146
▁возл	-10.715
▁дочка	-10.7153
▁вижу	-10.7154
▁налезет	-10.7154
▁осенью	-10.7155
▁настроение	-10.7157
▁пошло	-10.7158
▁несуразная	-10.7158
▁номером	-10.7161
▁ВЫ	-10.7162
▁112	-10.7164
▁выборе	-10.7165
▁вязки	-10.7168
▁неизвестно	-10.7169
▁Плохой	-10.7182
▁думайте	-10.7184
▁44-46,	-10.7198
▁медленно	-10.7202
стью	-10.7212
▁большими	-10.7215
▁описанием	-10.7216
89	-10.7223
▁103	-10.7231
ально	-10.7233
енький	-10.7239
тель	-10.7249
пла	-10.7251
▁дому	-10.7269
которы	-10.7291
v	-10.7301
льно	-10.7318
чный	-10.7329
▁отправляют	-10.733
кажу	-10.7333
▁таблицей	-10.7343
-88	-10.7351
▁Н	-10.7356
ики	-10.7363
▁совет	-10.7372
ство	-10.7377
КИ	-10.7384
единственное	-10.7387
обычно	-10.7387
Брала	-10.7387
▁n	-10.7388
серый	-10.7389
стоя	-10.739
▁Заказывал	-10.7393
скорее	-10.7396
Рукава	-10.7397
▁эффект	-10.7409
▁квадрат	-10.7426
▁продлял	-10.7433
прав	-10.7448
▁стильно	-10.7451
▁59	-10.746
▁пишу	-10.7469
▁have	-10.7474
▁пляж	-10.7475
▁внимательно	-10.7475
▁покупателю	-10.7475
▁трусов	-10.7475
▁балахон	-10.7475
▁Спб	-10.7475
▁второго	-10.7475
▁отстирываются	-10.7475
▁бросается	-10.7475
▁nice	-10.7475
▁процветания	-10.7476
▁Две	-10.7476
▁тёмно	-10.7476
▁пуловер	-10.7476
▁заканчивается	-10.7476
▁РФ	-10.7476
▁безобразно	-10.7476
▁платную	-10.7476
▁come	-10.7476
▁тёплое	-10.7477
▁симпатичный	-10.7477
▁работы	-10.7478
▁получала	-10.7478
▁sent	-10.7478
Кроме	-10.748
▁ремень	-10.748
▁капец	-10.748
▁удивлена	-10.7481
▁светится	-10.7481
▁заявленной	-10.7481
▁Сегодня	-10.7484
▁Хлопок	-10.7484
▁сравнения	-10.7484
▁хаки	-10.7486
▁can	-10.7486
▁грубая	-10.7487
▁откуда	-10.7489
▁152	-10.749
▁Тянутся	-10.749
▁известно	-10.7491
ву	-10.7491
▁правой	-10.7493
▁пришить	-10.7494
ём	-10.7497
▁беж	-10.7497
▁шарфик	-10.7499
▁новому	-10.7501
▁зелёный	-10.7501
▁Зачем	-10.7501
▁мелочь	-10.7505
▁пошли	-10.7505
▁Екатеринбурга	-10.7507
▁длинными	-10.7508
▁следующ	-10.7509
▁смысла	-10.7514
▁нити	-10.7518
▁работа	-10.7519
▁Новосибирска	-10.7523
▁-5	-10.7533
73	-10.7537
▁116	-10.7537
До	-10.7551
ОВ	-10.7552
-100	-10.7555
▁тканью	-10.7557
▁запахов	-10.756
▁ушки	-10.7561
▁начитавшись	-10.7564
▁верните	-10.7567
30	-10.7568
▁широковата	-10.7584
овой	-10.7596
ках	-10.7603
ение	-10.7612
Петербурга	-10.7614
▁итог	-10.7635
▁отменила	-10.7656
ЕР	-10.7661
▁хотели	-10.7666
▁Ростовск	-10.767
▁женщин	-10.7682
▁худ	-10.7687
▁49	-10.7701
▁разная	-10.7709
▁хорош	-10.7716
▁an	-10.7723
▁будете	-10.7724
Ж	-10.7726
▁40-42,	-10.7749
ЛА	-10.7756
ещё	-10.7758
Пришло	-10.7758
Если	-10.7758
Пришла	-10.7758
▁800	-10.776
Продавца	-10.7761
▁Новосибирск	-10.7763
придется	-10.7763
ас	-10.7766
▁пост	-10.7778
▁ЗАКАЗ	-10.7782
сама	-10.7787
▁разве	-10.7795
шивать	-10.7815
шего	-10.7822
омплект	-10.7824
17	-10.7834
чен	-10.7843
▁делают	-10.7844
▁имею	-10.7845
▁match	-10.7846
▁Защит	-10.7846
▁лишних	-10.7846
▁Джемпер	-10.7846
▁Расстроилась	-10.7846
▁came	-10.7846
▁сеткой	-10.7846
▁меркам	-10.7846
▁назначения	-10.7846
▁ввиду	-10.7846
▁бельё	-10.7846
▁ЭТОГО	-10.7846
▁брючки	-10.7846
▁косточки	-10.7846
▁временем	-10.7846
▁fast	-10.7847
▁аккуратная	-10.7847
▁одену	-10.7847
▁Где	-10.7848
▁выточки	-10.7849
▁прозрачное	-10.785
▁посылкой	-10.7851
▁процессе	-10.7851
▁застежки	-10.7853
▁приходят	-10.7854
▁back	-10.7854
▁первое	-10.7854
▁Сзади	-10.7854
▁Приятно	-10.7854
▁Увы	-10.7855
▁использовать	-10.7856
идят	-10.7857
▁рынке	-10.7857
▁Кстати	-10.7858
▁нежная	-10.7861
ша	-10.7864
!)))	-10.7864
▁натуральная	-10.7864
▁посмотрела	-10.7867
▁влезет	-10.787
▁синего	-10.7888
▁поменял	-10.7903
Ю	-10.7907
трата	-10.7914
▁сшили	-10.7916
▁ба	-10.7935
▁ВО	-10.7939
on	-10.7941
▁спорт	-10.7944
▁сто	-10.7951
▁минусы	-10.7955
▁кармане	-10.7967
▁товаров	-10.7975
▁видна	-10.7976
уз	-10.7988
▁поносить	-10.8007
▁подклада	-10.8007
▁стану	-10.8009
ели	-10.8024
▁набор	-10.8024
86	-10.8031
52	-10.8039
▁лучшем	-10.8049
▁часто	-10.8062
85	-10.8063
▁нового	-10.8074
▁отменил	-10.8084
чал	-10.8093
▁пе	-10.8094
могло	-10.8102
лучше	-10.8108
et	-10.8121
▁Ко	-10.8133
▁пуш	-10.8134
плечи	-10.8136
надеюсь	-10.8142
пошив	-10.8142
юбка	-10.8142
совсем	-10.8143
цена	-10.8175
ует	-10.8182
▁Красноярск	-10.8183
▁капрон	-10.8186
▁нему	-10.8187
▁достойно	-10.8191
тра	-10.8193
чтоб	-10.8197
-98	-10.82
▁32	-10.8203
ышивка	-10.8211
▁низа	-10.8229
▁than	-10.823
▁54-56	-10.823
▁more	-10.823
▁Трикотаж	-10.823
▁Шапочк	-10.823
▁апреля	-10.823
▁выяснилось	-10.823
▁компания	-10.823
▁маленьких	-10.823
▁отделение	-10.823
▁пупок	-10.823
▁средняя	-10.823
▁тунику	-10.823
▁чёрная	-10.823
▁юбкой	-10.823
▁тройку	-10.823
▁ниточек	-10.823
▁посторонне	-10.823
▁одежде	-10.823
▁неделя	-10.823
▁марля	-10.823
▁ветровка	-10.823
▁bad	-10.823
▁прилегает	-10.8231
▁левой	-10.8231
▁едва	-10.8231
▁шортики	-10.8231
▁прекрасная	-10.8231
▁стильная	-10.8231
▁показалось	-10.8231
▁платок	-10.8232
▁носок	-10.8232
▁айс	-10.8232
▁вежливый	-10.8233
▁новую	-10.8233
▁обработка	-10.8234
▁отправления	-10.8234
▁красного	-10.8235
▁эластичные	-10.8236
▁тусклый	-10.8236
▁морозы	-10.8236
▁верну	-10.8237
▁показано	-10.8239
▁некомфортно	-10.8239
▁праздники	-10.824
▁положительных	-10.824
▁идеальная	-10.824
▁жалею	-10.8242
▁привезли	-10.8242
▁Подошла	-10.8243
▁44-46.	-10.8243
.01.2018	-10.8244
▁прозрачные	-10.8244
▁хороших	-10.8245
▁одобрили	-10.8248
ood	-10.825
▁пахнут	-10.8251
▁любой	-10.8251
▁2.5	-10.8252
▁сайта	-10.8259
▁ногами	-10.8259
▁недостаток	-10.8262
▁лежала	-10.8263
▁мнение	-10.8272
▁Никак	-10.8275
одна	-10.8289
▁магазином	-10.8289
▁частичны	-10.8307
▁отсутствие	-10.8309
▁вечер	-10.8317
▁причине	-10.8322
ды	-10.834
писала	-10.834
▁пакетик	-10.8341
▁продлили	-10.8347
▁весе	-10.835
▁ре	-10.836
ЫЙ	-10.8363
шиты	-10.8368
77	-10.8383
▁такими	-10.8385
▁пред	-10.8385
▁топа	-10.8434
▁воротника	-10.8435
ооочень	-10.8464
▁капюшона	-10.8465
▁долги	-10.8474
От	-10.8475
ad	-10.8476
▁кол	-10.8477
▁лен	-10.8482
запах	-10.8493
▁Покупа	-10.8494
ись	-10.8495
88	-10.8495
▁real	-10.8517
▁164,	-10.8519
????	-10.8521
вообще	-10.8528
пал	-10.8529
z	-10.8533
Спор	-10.8542
Советую	-10.8543
грудь	-10.8544
прислали	-10.8546
три	-10.8553
жду	-10.8565
▁манжет	-10.8567
енькая	-10.8568
▁получена	-10.8569
▁Довольн	-10.8582
▁350	-10.8585
чки	-10.8588
es	-10.8596
нию	-10.8603
▁ниж	-10.8612
РА	-10.8619
Ц	-10.8621
▁сарафан	-10.863
▁Aliexpress	-10.863
▁recommend	-10.863
▁ЗАКАЗЫВАЙТЕ	-10.863
▁Причём	-10.863
▁апреле	-10.863
▁закончился	-10.863
▁многих	-10.863
▁одеваешь	-10.863
▁одноразовые	-10.863
▁разошелся	-10.863
▁службе	-10.863
▁тонкого	-10.863
▁выточек	-10.863
▁ровная	-10.863
▁синтетику	-10.863
▁Тюмени	-10.863
▁прийти	-10.863
▁оформила	-10.863
▁сыпется	-10.8631
▁важно	-10.8631
▁белых	-10.8631
пр	-10.8631
▁носков	-10.8631
▁мнётся	-10.8631
вар	-10.8631
▁растягиваются	-10.8631
▁обслуживание	-10.8631
▁торчащими	-10.8631
▁верить	-10.8632
▁вернёт	-10.8632
▁хорошей	-10.8632
род	-10.8632
▁отследить	-10.8632
▁движения	-10.8632
▁возвращены	-10.8633
▁угадали	-10.8633
▁отрезать	-10.8633
меньше	-10.8634
▁основном	-10.8634
▁затяжками	-10.8635
▁попало	-10.8636
▁стянуты	-10.8637
▁Неприятно	-10.8637
▁зимние	-10.8639
▁скидки	-10.864
▁полные	-10.864
▁пушистая	-10.8643
гла	-10.8652
▁Легинс	-10.8653
▁Обман	-10.8654
кон	-10.8655
▁долгой	-10.8661
▁Недовольна	-10.8665
▁штуки	-10.8669
▁часа	-10.867
▁люб	-10.867
▁Картинк	-10.8672
чек	-10.8674
▁зашивать	-10.8683
▁смотрела	-10.8688
казались	-10.8696
96	-10.8697
▁слона	-10.8699
??	-10.8704
▁Брак	-10.8706
цы	-10.8712
овый	-10.8714
▁узковато	-10.8715
▁подумала	-10.8722
▁флисе	-10.8726
ье	-10.8747
▁швами	-10.8751
жу	-10.8758
▁гр	-10.8764
хотела	-10.8775
68	-10.8778
▁подшит	-10.8779
бор	-10.8784
▁Чулк	-10.8791
▁3/4.	-10.8791
рукав	-10.8795
прям	-10.88
▁получа	-10.8812
▁тяжело	-10.8813
▁гор	-10.8814
▁прекрасное	-10.8823
▁Со	-10.8825
мес	-10.883
▁Сшиты	-10.8844
▁приходило	-10.8878
▁отдельн	-10.8879
была	-10.8881
ности	-10.8883
▁краям	-10.8886
▁оба	-10.891
▁трека	-10.8916
▁менять	-10.8928
as	-10.8934
просила	-10.8944
▁пят	-10.8957
оказалось	-10.8958
ожидала	-10.8959
обидно	-10.8959
ивать	-10.8961
▁168,	-10.8967
кто	-10.8968
уж	-10.8969
▁развод	-10.8974
▁Бел	-10.8974
▁завышенн	-10.8976
▁разм	-10.8977
хотелось	-10.898
такое	-10.8981
тянется	-10.8981
заказом	-10.8983
ставила	-10.8994
вести	-10.8999
верх	-10.9006
▁великолепно	-10.9008
▁халата	-10.9012
▁прошла	-10.9017
▁баб	-10.9023
72	-10.9032
▁локтя	-10.9035
▁коже	-10.9045
▁бордо	-10.9046
▁dispute	-10.9047
▁fabric	-10.9047
▁Штанишки	-10.9047
▁внимательнее	-10.9047
▁вышлет	-10.9047
▁жесткая	-10.9047
▁отделения	-10.9047
▁пузырь	-10.9047
▁швом	-10.9047
▁изделии	-10.9047
▁осторожны	-10.9047
▁отстирается	-10.9047
▁произошло	-10.9047
▁остальных	-10.9047
▁бюстгалтер	-10.9047
▁ребёнку	-10.9047
▁добавить	-10.9047
▁упаковки	-10.9048
▁отвечать	-10.9048
▁странные	-10.9048
▁блин	-10.9048
▁праздников	-10.9048
▁учетом	-10.9049
▁хлопковая	-10.9049
▁сомневаюсь	-10.9049
▁футболочка	-10.9049
▁интересный	-10.905
▁приличная	-10.905
▁дыры	-10.905
▁99	-10.905
▁плотности	-10.9052
▁замка	-10.9052
▁территории	-10.9052
▁передней	-10.9053
▁молочный	-10.9053
▁транспортной	-10.9053
▁больно	-10.9054
▁154	-10.9054
▁Краснодар	-10.9055
▁тупо	-10.9056
гу	-10.9056
▁пожалуйста	-10.9057
▁решать	-10.9057
▁Плотная	-10.9057
▁буквы	-10.9059
▁длинной	-10.9059
▁стрелки	-10.9061
▁Строчк	-10.9061
▁синюю	-10.9061
▁отклеивается	-10.9064
▁составом	-10.9065
▁бесполезно	-10.9066
▁оправдывает	-10.9069
овые	-10.907
▁свитшот	-10.907
▁-10	-10.9073
▁ставить	-10.9073
▁101	-10.9073
▁подарю	-10.9074
▁просвечиваются	-10.9081
▁сидела	-10.9088
00	-10.9089
ста	-10.9103
мало	-10.9109
▁item	-10.9111
▁всём	-10.9115
▁прост	-10.9124
ены	-10.9128
60	-10.9131
▁параметрами	-10.9133
▁номеру	-10.9155
▁советовал	-10.9157
платила	-10.9163
низу	-10.9169
лад	-10.9178
▁тянут	-10.9178
нный	-10.9183
ve	-10.9187
-92	-10.919
ред	-10.9194
дал	-10.9209
▁склад	-10.9231
▁мило	-10.9232
▁неудачная	-10.9258
ием	-10.9259
дать	-10.927
шита	-10.9274
▁Кофт	-10.9281
▁Те	-10.9284
▁нить	-10.9284
▁прохладн	-10.9294
шло	-10.9294
чку	-10.9305
▁продукт	-10.9312
ir	-10.9332
▁Вам	-10.9333
ce	-10.9338
;)	-10.934
▁Прин	-10.9376
везде	-10.939
Носить	-10.9394
голубой	-10.9396
ваю	-10.9402
▁восторг	-10.9407
▁китай	-10.942
видимо	-10.942
мерила	-10.9422
▁69	-10.9422
сел	-10.9423
▁обрезан	-10.9424
▁Крым	-10.9431
▁Отправлял	-10.9432
▁поставщик	-10.9436
▁перепутал	-10.9464
▁соглас	-10.9468
▁сильны	-10.9471
▁3/4,	-10.9474
▁разочарованна	-10.9475
бязательно	-10.9476
▁смотреть	-10.9477
▁Курьер	-10.9477
▁color	-10.9478
иджак	-10.9478
▁Шуб	-10.9479
▁short	-10.9481
▁great	-10.9482
▁Тёплые	-10.9482
▁внимания	-10.9482
▁водолазку	-10.9482
▁подмышек	-10.9482
▁собственно	-10.9482
▁чувствуется	-10.9482
▁школу	-10.9482
▁there	-10.9482
▁Тёплая	-10.9482
▁администрация	-10.9482
▁рубашке	-10.9482
▁спину	-10.9482
▁big	-10.9482
▁верьте	-10.9482
▁тонкую	-10.9482
▁снять	-10.9482
▁соглашался	-10.9482
▁черных	-10.9482
▁извинился	-10.9482
▁первом	-10.9482
▁порвались	-10.9482
▁обманывает	-10.9482
▁вернет	-10.9482
▁зацепок	-10.9483
▁белое	-10.9483
▁интересная	-10.9483
▁проймы	-10.9483
▁Минус	-10.9483
▁предела	-10.9484
▁material	-10.9484
▁кучу	-10.9484
▁изнаночной	-10.9485
▁процентов	-10.9485
▁колится	-10.9485
шёл	-10.9485
▁имеют	-10.9486
▁Самары	-10.9486
▁каждой	-10.9486
▁отовсюду	-10.9487
▁Дочь	-10.9488
▁ВСЕ	-10.9489
▁поверила	-10.949
▁огромной	-10.949
▁испорчено	-10.949
▁описано	-10.9491
▁возможности	-10.9491
▁блестят	-10.9492
▁снимать	-10.9492
▁бесформенная	-10.9492
▁держаться	-10.9492
▁пустую	-10.9494
▁сползает	-10.9495
▁Возврат	-10.9495
рус	-10.9495
▁замеры	-10.9496
▁мама	-10.9496
▁скрипит	-10.9496
▁бант	-10.9497
▁упакованы	-10.9498
▁итогу	-10.9498
show	-10.9499
▁толку	-10.9499
▁ден	-10.95
▁визуально	-10.9501
▁разрезы	-10.9503
▁линия	-10.9503
▁фурнитура	-10.9504
▁извините	-10.9504
▁положительные	-10.9506
▁история	-10.9506
▁завис	-10.951
▁помпон	-10.951
▁дико	-10.9514
▁весьма	-10.9518
▁покупателям	-10.9519
▁порвано	-10.953
▁вобщем	-10.9533
▁З	-10.9535
дер	-10.954
▁ушел	-10.9541
▁черном	-10.9542
▁представлен	-10.9542
▁сшить	-10.9556
нимаю	-10.9559
▁коротковатые	-10.956
▁косяки	-10.9563
-68	-10.9566
большое	-10.9568
▁другими	-10.9571
▁приняли	-10.9572
▁47	-10.9574
фиг	-10.9583
ете	-10.9585
▁крутое	-10.9615
▁Красн	-10.962
шко	-10.9622
▁Прод	-10.9631
▁узковата	-10.9634
вка	-10.9657
!!!!!!!!	-10.9676
очно	-10.9687
▁готова	-10.9688
▁свитером	-10.9702
▁вида	-10.9712
▁нормального	-10.9721
▁пору	-10.9725
оп	-10.9735
кинула	-10.9745
став	-10.9752
-96	-10.9756
▁хороши	-10.9756
▁вшиты	-10.977
ап	-10.9803
село	-10.9816
▁начало	-10.9828
данную	-10.9832
▁48-50.	-10.9838
thing	-10.9845
внутри	-10.9848
идеально	-10.9848
сильно	-10.9849
▁Вид	-10.9849
пришёл	-10.9849
подошло	-10.9849
▁Подкладк	-10.985
▁блеск	-10.9883
▁ремонт	-10.9883
▁смысл	-10.9887
▁балл	-10.989
▁узковаты	-10.99
▁ворс	-10.9905
▁Заказал	-10.9917
осень	-10.9919
▁ногам	-10.9922
▁складка	-10.9923
▁хвост	-10.9926
дёт	-10.9933
▁ощуп	-10.9934
осадка	-10.9935
▁Дешев	-10.9936
▁Мягкие	-10.9936
▁белья	-10.9936
▁леггинсов	-10.9936
▁отделении	-10.9936
▁поправимо	-10.9936
▁посмотреть	-10.9936
▁свободненько	-10.9936
▁умница	-10.9936
▁утверждал	-10.9936
▁хватило	-10.9936
▁ширины	-10.9936
▁этикетка	-10.9936
▁подобрать	-10.9936
▁последнее	-10.9936
▁Ali	-10.9936
▁чёрное	-10.9936
▁отменена	-10.9936
▁платью	-10.9936
▁расходиться	-10.9936
▁отстиралось	-10.9936
▁Состав	-10.9937
▁подруги	-10.9937
▁жакет	-10.9937
▁молчу	-10.9937
htm	-10.9937
▁июле	-10.9937
▁молнию	-10.9937
▁шапку	-10.9937
▁ситуацию	-10.9937
▁порядочный	-10.9937
▁уютный	-10.9937
▁95%	-10.9938
▁уютная	-10.9938
▁милые	-10.9938
▁выглядеть	-10.9938
▁Классный	-10.9938
▁обзор	-10.9938
▁серо	-10.9938
▁подобны	-10.9938
▁холодная	-10.9938
▁стандартный	-10.9938
▁тяжелая	-10.9939
▁платная	-10.9939
▁all	-10.9939
▁модно	-10.994
▁затяжкой	-10.994
▁истекло	-10.994
▁Точно	-10.994
▁непонятные	-10.9941
▁костюмчик	-10.9941
▁удачи	-10.9942
▁бок	-10.9942
▁отказывается	-10.9942
▁Расцветк	-10.9943
▁НИЧЕГО	-10.9943
▁Теплая	-10.9943
▁отстирать	-10.9943
▁заявленных	-10.9943
▁продливал	-10.9943
▁страну	-10.9943
▁колом	-10.9944
▁доставить	-10.9944
▁мозги	-10.9945
▁хорошую	-10.9945
рисутствует	-10.9945
▁бу	-10.9947
▁клевая	-10.9947
▁автоматически	-10.9947
▁слово	-10.9948
▁растянутая	-10.9948
▁капроновые	-10.9948
▁пожалуй	-10.9951
озже	-10.9951
▁синяя	-10.9952
▁Время	-10.9955
▁точь	-10.9955
▁ужасен	-10.9958
▁прямые	-10.9959
▁карманах	-10.9964
▁c	-10.9966
▁связалась	-10.9968
▁Тем	-10.9968
▁выбросила	-10.9969
▁ge	-10.9971
▁боку	-10.9972
▁штанине	-10.9973
▁подождите	-10.9973
▁ехать	-10.9975
▁повыше	-10.9976
▁невероятно	-10.9989
летела	-10.9992
▁кружев	-10.9998
всем	-11.0002
вата	-11.0005
соответствует	-11.0006
▁ххх	-11.0006
▁мехом	-11.0011
▁кон	-11.0012
w	-11.0026
▁прямая	-11.0037
65	-11.0039
)))))	-11.0043
%	-11.0043
▁ели	-11.0054
▁вз	-11.0066
▁красивого	-11.0066
-94	-11.0075
▁решени	-11.0079
▁дала	-11.0088
ъ	-11.0103
th	-11.0115
▁объёме	-11.0117
▁цел	-11.0128
▁de	-11.0136
▁оп	-11.014
▁кривое	-11.0148
▁получилась	-11.0159
▁p	-11.0166
пока	-11.017
hat	-11.0203
Сам	-11.0214
▁сравнени	-11.0216
ивается	-11.0219
▁неверно	-11.022
Ь	-11.0238
▁каком	-11.0246
гр	-11.0256
▁огромн	-11.0258
думайте	-11.0273
▁можете	-11.0273
▁ДО	-11.0277
уют	-11.0302
▁ПРИШ	-11.0303
▁прош	-11.0304
▁указанны	-11.0311
▁ОК	-11.0312
овал	-11.0317
▁расстроил	-11.0321
хлопок	-11.0324
прошло	-11.0325
еш	-11.0332
▁сообщил	-11.0334
Ну	-11.0335
▁прострочен	-11.0343
ерните	-11.0345
ever	-11.035
быстро	-11.0356
▁отказ	-11.0361
▁телефон	-11.0364
▁игнор	-11.0365
чную	-11.0368
котор	-11.037
мпон	-11.0373
ному	-11.0377
▁синтетическ	-11.0398
▁дизайн	-11.0398
▁Ждал	-11.0402
шить	-11.0403
писанию	-11.0406
etail	-11.0413
▁Маленький	-11.0413
▁ПРИШЕЛ	-11.0413
▁Параметры	-11.0413
▁гольная	-11.0413
▁истёк	-11.0413
▁неровный	-11.0413
▁пополам	-11.0413
▁растроена	-11.0413
▁службы	-11.0413
▁таблицы	-11.0413
▁тратить	-11.0413
▁худенькую	-11.0413
▁детская	-11.0413
▁краю	-11.0413
▁покупатель	-11.0413
▁резинкой	-11.0413
▁бесформенный	-11.0413
▁выветрится	-11.0413
▁порвалась	-11.0413
▁шею	-11.0413
▁much	-11.0413
▁меру	-11.0413
▁целости	-11.0413
▁нём	-11.0413
▁МЕСЯЦА	-11.0413
▁чистый	-11.0413
▁бред	-11.0413
▁смотрелось	-11.0413
▁самостоятельно	-11.0414
▁пятен	-11.0414
видно	-11.0414
▁отслеживались	-11.0414
▁ВЕРНУЛИ	-11.0414
▁моментально	-11.0414
▁разошёлся	-11.0415
▁жуткий	-11.0415
▁движении	-11.0415
▁милый	-11.0415
▁привез	-11.0415
▁складками	-11.0416
▁четверти	-11.0416
▁закончилось	-11.0416
▁рубчик	-11.0417
▁колготы	-11.0417
▁продавце	-11.0418
te	-11.0418
▁Thanks	-11.0418
▁балконе	-11.0419
▁ЦВЕТ	-11.0421
▁верная	-11.0421
▁получите	-11.0422
▁данным	-11.0423
▁указанного	-11.0423
▁Тянется	-11.0424
▁сравн	-11.0424
▁племяннице	-11.0425
▁черными	-11.0431
▁понятный	-11.0432
▁вытачек	-11.0434
▁заказанный	-11.0435
▁оторвана	-11.0435
ЕМ	-11.0438
▁вонь	-11.0439
▁больших	-11.044
▁Ра	-11.0441
▁лезут	-11.0442
▁отличи	-11.0454
ез	-11.046
▁поясом	-11.0461
▁фасона	-11.0462
▁новые	-11.0463
▁достойное	-11.0468
▁Краснодара	-11.0469
▁вер	-11.047
▁ушла	-11.0472
▁полы	-11.0474
▁долг	-11.0474
▁оставила	-11.0478
▁ле	-11.0491
▁косо	-11.0492
жк	-11.0506
нные	-11.0507
пло	-11.0513
▁дам	-11.0518
▁предупредил	-11.052
нули	-11.0521
ar	-11.0526
▁натягивается	-11.0528
▁51	-11.053
ложить	-11.0533
нуть	-11.0533
-110	-11.0549
▁возвратом	-11.0551
▁тёпл	-11.0558
▁дырках	-11.0559
АТЬ	-11.0562
sh	-11.0565
▁вороте	-11.0579
▁воз	-11.0581
пуска	-11.0587
le	-11.0589
▁поставил	-11.0598
▁разме	-11.0618
▁дать	-11.0621
▁ра	-11.0623
сам	-11.0632
▁реальность	-11.0637
це	-11.0653
пре	-11.0657
итесь	-11.0658
точки	-11.0659
▁удобное	-11.066
ходят	-11.0667
▁бол	-11.0672
▁треком	-11.0676
▁88,	-11.0677
чит	-11.068
▁доказательств	-11.0702
шит	-11.0702
it	-11.073
ром	-11.0732
▁проверя	-11.0747
язка	-11.0748
▁хрен	-11.0761
▁благо	-11.0766
тельно	-11.0767
▁Велико	-11.0784
алась	-11.0788
дает	-11.079
▁do	-11.0796
▁утягивает	-11.0801
▁надежд	-11.0801
▁вода	-11.0804
▁46-	-11.0807
▁ОН	-11.0815
▁час	-11.0816
▁висел	-11.082
▁порадовал	-11.0822
счёт	-11.0823
открывала	-11.0824
Только	-11.0824
резинка	-11.0824
плотная	-11.0825
Швы	-11.0826
которое	-11.0826
ra	-11.0827
тянутся	-11.0833
два	-11.0833
ран	-11.0834
▁быстрой	-11.0848
полне	-11.0849
орочка	-11.085
▁тон	-11.0862
▁Заказыва	-11.0863
▁продаж	-11.0868
вместо	-11.0878
▁Никаки	-11.0881
▁хам	-11.0883
▁готов	-11.0888
▁начинает	-11.091
▁двое	-11.0912
▁Замечательная	-11.0913
▁Латвию	-11.0913
▁Первое	-11.0913
▁компании	-11.0913
▁мышками	-11.0913
▁наличие	-11.0913
▁отметить	-11.0913
▁первую	-11.0913
▁пипец	-11.0913
▁поздно	-11.0913
▁помочь	-11.0913
▁прикольные	-11.0913
▁реагирует	-11.0913
▁трусиков	-11.0913
▁волнами	-11.0913
▁подарки	-11.0913
▁иногда	-11.0913
▁синтетикой	-11.0913
▁чёрном	-11.0913
▁беременности	-11.0913
▁Большой	-11.0913
▁пайетки	-11.0913
▁Одни	-11.0913
▁болтаются	-11.0913
▁магнитится	-11.0913
▁отстирались	-11.0913
▁список	-11.0913
▁проверить	-11.0913
▁забирать	-11.0913
▁похудеть	-11.0913
▁Одно	-11.0913
▁оттенок	-11.0913
▁хлопком	-11.0913
▁Голим	-11.0913
▁пролежал	-11.0913
▁стройных	-11.0913
▁тоненькое	-11.0913
▁протяжении	-11.0913
▁горле	-11.0914
▁11.11.2017	-11.0914
▁заказанного	-11.0914
▁грубый	-11.0914
▁оперативность	-11.0914
▁худеть	-11.0914
▁полупрозрачная	-11.0914
скую	-11.0915
▁обработки	-11.0915
Id	-11.0915
▁шортах	-11.0915
▁складку	-11.0915
▁обтягивают	-11.0915
▁декольте	-11.0915
▁гулять	-11.0915
▁пыта	-11.0915
▁хорошенькая	-11.0915
▁часов	-11.0916
▁Отдала	-11.0916
▁подарка	-11.0916
▁принёс	-11.0917
▁тебе	-11.0917
▁июне	-11.0917
▁краской	-11.0918
▁основной	-11.0918
▁полосками	-11.0919
▁летнее	-11.0919
▁начинается	-11.0919
▁данные	-11.0919
.5	-11.0919
▁Объем	-11.092
▁Трэк	-11.092
▁ситуация	-11.092
▁Долга	-11.092
▁выводы	-11.092
▁дышать	-11.092
▁принесли	-11.0922
▁широковато	-11.0922
▁прекрасный	-11.0922
▁придут	-11.0922
▁подшить	-11.0923
▁прострочены	-11.0924
▁шуршит	-11.0924
▁парка	-11.0925
ооооочень	-11.0925
▁Дочке	-11.0927
▁пышная	-11.0927
▁бесплатной	-11.0928
▁брелок	-11.0929
▁решайте	-11.0929
▁wear	-11.0929
▁заранее	-11.0929
▁забрать	-11.0929
▁оранжевый	-11.0931
▁Замок	-11.0934
▁доходит	-11.0934
▁станет	-11.0939
▁ушёл	-11.0941
▁подкладом	-11.0941
▁черт	-11.0943
▁Вас	-11.0947
▁Общение	-11.095
▁капюшоном	-11.0953
▁оправдала	-11.0954
▁непонятная	-11.0954
▁весной	-11.0956
▁складе	-11.0959
▁Абсолютн	-11.096
словно	-11.0961
▁искала	-11.0961
▁конкретно	-11.0964
▁нужный	-11.0966
▁повелась	-11.0967
ают	-11.0968
▁померила	-11.097
▁туговато	-11.0971
▁доб	-11.0981
щие	-11.0981
▁помогло	-11.0983
93	-11.0992
ибо	-11.0994
▁переда	-11.0997
▁короткой	-11.1
▁Криво	-11.1008
▁тонковат	-11.1014
змер	-11.1022
деть	-11.1023
▁неаккуратные	-11.1025
знаю	-11.1029
▁узкое	-11.1032
▁ПРИ	-11.1037
▁дешевой	-11.1043
чные	-11.1043
▁видео	-11.1045
-104	-11.105
▁прийдет	-11.1052
▁продлевали	-11.1062
▁моими	-11.1065
▁дополнительны	-11.1067
▁самим	-11.1082
▁захотел	-11.1084
▁начина	-11.1085
▁возможность	-11.1092
▁оформлен	-11.1093
▁Волгоград	-11.1097
рез	-11.1114
▁Прям	-11.1115
ооо	-11.1119
▁бра	-11.1123
вала	-11.1126
сла	-11.1133
▁Юб	-11.1135
▁некрасивый	-11.1138
щу	-11.1145
▁интернет	-11.1146
▁предложили	-11.1148
▁дли	-11.1153
95	-11.1154
▁га	-11.1155
▁бедрам	-11.1159
жен	-11.1163
▁оправдало	-11.1164
▁Нормальны	-11.1175
ll	-11.1179
94	-11.1184
▁плат	-11.1193
нул	-11.1198
ЛО	-11.1206
▁максимальны	-11.1215
▁Пере	-11.1232
ива	-11.1236
▁Чтоб	-11.1238
▁штанин	-11.1257
▁оформлени	-11.1259
ваты	-11.1264
▁95,	-11.1285
▁46-48.	-11.1303
отлично	-11.1309
тная	-11.131
▁пышн	-11.1328
▁слова	-11.133
▁Новы	-11.1333
▁че	-11.1337
▁ярлык	-11.1344
▁11.11.	-11.1345
P	-11.1349
Хотя	-11.1351
После	-11.1351
теперь	-11.1351
рублей	-11.1351
тонкий	-11.1351
штаны	-11.1351
короткие	-11.1351
▁пола	-11.1351
через	-11.1358
▁данн	-11.1358
которая	-11.1359
Вообщем	-11.136
Посылка	-11.1363
▁носил	-11.1383
▁Челябинск	-11.1389
▁свободной	-11.1391
▁08	-11.1395
hen	-11.14
▁пл	-11.141
▁y	-11.1412
▁тверд	-11.1417
аксимум	-11.1418
ика	-11.1427
acket	-11.1438
▁even	-11.1439
▁Непонятно	-11.1439
▁Прекрасная	-11.1439
▁СДЕК	-11.1439
▁СООТВЕТСТВУЕТ	-11.1439
▁бежевые	-11.1439
▁дырочкой	-11.1439
▁майке	-11.1439
▁наполнителя	-11.1439
▁подбирал	-11.1439
▁садишься	-11.1439
▁Уфы	-11.1439
▁чёрного	-11.1439
▁сыпятся	-11.1439
▁выйдешь	-11.1439
▁суток	-11.1439
▁заметны	-11.1439
▁бомбер	-11.1439
▁регулируются	-11.1439
▁слабые	-11.1439
▁растянулась	-11.1439
▁худенькая	-11.1439
▁переделать	-11.1439
▁растроилась	-11.1439
▁Пуговицы	-11.1439
▁утюгом	-11.1439
▁спрашивала	-11.1439
▁пойти	-11.144
▁колготках	-11.144
▁прилагаю	-11.144
▁катастрофически	-11.144
▁помогает	-11.144
▁встречала	-11.144
▁получаются	-11.144
▁работают	-11.144
▁Меня	-11.144
▁путь	-11.144
▁шубка	-11.144
▁Шел	-11.144
▁думать	-11.1441
▁Приехал	-11.1441
▁указанному	-11.1441
▁рыхлая	-11.1441
▁комментарии	-11.1441
▁сапоги	-11.1441
▁влезть	-11.1442
▁ПРОДАВЦУ	-11.1442
▁трещит	-11.1442
▁Особенно	-11.1442
▁неравномерно	-11.1442
▁всюду	-11.1442
▁отношения	-11.1442
▁баллов	-11.1443
▁Отвратительная	-11.1443
......	-11.1443
▁притензий	-11.1443
▁застёгивается	-11.1443
▁появляются	-11.1443
▁подкладке	-11.1444
▁брюках	-11.1444
▁СУПЕР	-11.1446
▁Сплошн	-11.1446
▁шнурок	-11.1446
▁Начну	-11.1447
▁любимый	-11.1447
▁проще	-11.1448
▁причинам	-11.1449
▁разводы	-11.145
▁АЛИ	-11.145
▁серым	-11.145
▁дворе	-11.1451
▁1500	-11.1451
ская	-11.1451
▁кожи	-11.1452
▁просьбы	-11.1453
▁весны	-11.1454
▁исключение	-11.1454
▁Там	-11.1455
▁Грудь	-11.1456
▁тонюсенькая	-11.1456
▁далее	-11.1456
▁стринги	-11.1457
▁заменить	-11.1459
▁стремно	-11.1459
▁вине	-11.146
▁чёрными	-11.1461
▁человеку	-11.1461
▁возьму	-11.1462
▁длинне	-11.1465
лезли	-11.1473
▁Ог	-11.1473
▁сюда	-11.1476
▁например	-11.1477
▁получился	-11.1481
▁работать	-11.1483
▁бог	-11.1484
▁серое	-11.1486
▁мыть	-11.1487
▁неудачный	-11.1487
▁разными	-11.1489
▁поверх	-11.1502
читайте	-11.1502
ыталась	-11.1513
▁расс	-11.1516
пы	-11.1524
▁разочаровала	-11.1532
▁Прошит	-11.1535
▁лямка	-11.1542
ывала	-11.1542
69	-11.155
▁Почта	-11.1554
▁го	-11.1556
▁Пошита	-11.1559
▁клея	-11.1574
75	-11.1577
▁друга	-11.158
▁скорость	-11.158
▁поможет	-11.1582
▁носите	-11.1584
▁нормальной	-11.1587
▁спорить	-11.1592
87	-11.1597
▁пример	-11.1603
▁or	-11.1607
▁70,	-11.1616
▁1)	-11.1627
тика	-11.1635
ИТЕ	-11.1637
▁don	-11.165
▁Такая	-11.1662
▁грязное	-11.1665
▁прохладно	-11.1672
тка	-11.1673
▁форме	-11.1681
▁d	-11.1685
▁Иркутск	-11.169
▁комплекта	-11.1706
▁Ростов	-11.1713
лок	-11.173
ства	-11.1734
тно	-11.1751
▁E	-11.176
▁i	-11.1761
был	-11.1762
de	-11.1762
▁бес	-11.1775
первые	-11.1782
▁хотят	-11.1791
▁71	-11.1792
цу	-11.18
читала	-11.1801
▁Товара	-11.1816
▁кормит	-11.1841
▁кардигана	-11.1854
дня	-11.1855
нс	-11.1857
▁нашу	-11.1874
ходит	-11.1877
енный	-11.1882
▁зал	-11.1893
Короче	-11.1906
ОЧЕНЬ	-11.1906
маломерит	-11.1906
нужно	-11.1906
Трек	-11.1907
чу	-11.191
▁Краснодарск	-11.1917
ИН	-11.1917
▁дискомфорт	-11.1921
-93	-11.1923
сразу	-11.1924
170	-11.1939
▁мороз	-11.194
▁Екатеринбург	-11.1945
▁огород	-11.1954
▁щ	-11.1962
лый	-11.1963
▁фотографиям	-11.1966
▁белым	-11.1968
омбинезон	-11.1973
▁оплачен	-11.198
▁описан	-11.1981
▁количество	-11.1981
аблица	-11.1982
▁эффектно	-11.1984
▁транспортн	-11.1986
▁верха	-11.1986
▁he	-11.1989
▁thank	-11.1991
▁ожидаемо	-11.1991
-89	-11.1993
▁становит	-11.1994
▁стекло	-11.1994
▁has	-11.1994
▁Естественно	-11.1994
▁Маленькие	-11.1994
▁Подойдёт	-11.1994
▁голени	-11.1994
▁дешевка	-11.1994
▁закончились	-11.1994
▁компанию	-11.1994
▁лишним	-11.1994
▁отправят	-11.1994
▁оценки	-11.1994
▁первым	-11.1994
▁поплотнее	-11.1994
▁приобрести	-11.1994
▁разошлась	-11.1994
▁скатается	-11.1994
▁соответствии	-11.1994
▁этикеток	-11.1994
▁ведитесь	-11.1994
▁наденешь	-11.1994
▁полиэстр	-11.1994
▁оттенка	-11.1994
▁равномерно	-11.1994
▁cotton	-11.1994
▁Говно	-11.1994
▁Лямки	-11.1994
▁говорю	-11.1994
▁общается	-11.1995
▁Плотные	-11.1995
▁Малы	-11.1995
▁Короткий	-11.1995
▁общения	-11.1995
▁жару	-11.1995
▁лёгкий	-11.1995
▁химический	-11.1995
▁блузке	-11.1995
▁рейтинг	-11.1995
▁Ранее	-11.1995
▁got	-11.1995
▁хлопковые	-11.1995
▁ДОСТАВКА	-11.1995
▁прелесть	-11.1995
▁Удачи	-11.1995
▁сути	-11.1995
▁остаётся	-11.1996
▁светлый	-11.1996
▁откровенно	-11.1996
▁пойми	-11.1996
▁подрезать	-11.1996
▁блеклый	-11.1997
▁заказанных	-11.1997
▁становятся	-11.1997
▁Красивые	-11.1997
▁упор	-11.1998
▁подкладкой	-11.1998
▁одевала	-11.1998
▁платить	-11.1998
▁фирмы	-11.1998
▁сдек	-11.1998
▁летние	-11.1999
▁бусины	-11.2
▁косая	-11.2
▁советовала	-11.2
▁домашний	-11.2001
▁рекомендации	-11.2002
▁Маленькая	-11.2002
▁ппц	-11.2002
▁Качественно	-11.2002
▁расположены	-11.2003
▁тёплую	-11.2003
▁Ужасные	-11.2003
▁подвернуть	-11.2003
▁Тоненькая	-11.2003
▁впринципе	-11.2004
▁зеленого	-11.2004
▁ожидали	-11.2004
▁половая	-11.2005
▁крючки	-11.2005
▁обещает	-11.2006
▁худая	-11.2006
▁узор	-11.2006
▁In	-11.2007
▁складывается	-11.2007
▁БЕЗ	-11.2008
▁Тряпка	-11.2008
▁ОБМАН	-11.2008
▁прострочено	-11.2008
▁черной	-11.2009
▁Чита	-11.2009
▁молчал	-11.2009
▁Похоже	-11.2009
▁примерила	-11.2009
▁поправлять	-11.2009
▁re	-11.201
▁голове	-11.2012
▁помогли	-11.2012
▁отслеживала	-11.2012
▁голубого	-11.2013
▁61	-11.2014
▁ориентировалась	-11.2014
▁ради	-11.2015
▁стразы	-11.2017
▁зацепках	-11.2018
▁мир	-11.2019
▁объемный	-11.202
▁машине	-11.2023
низ	-11.2023
▁летняя	-11.2024
▁Гол	-11.2025
▁темный	-11.2027
▁полиняла	-11.2027
▁презент	-11.2029
▁дочки	-11.203
▁out	-11.2034
▁точку	-11.2035
СЯ	-11.2038
▁Воронежа	-11.2039
▁вживую	-11.2041
▁рука	-11.2042
▁показан	-11.2045
40	-11.2046
▁Волгограда	-11.2049
▁слабо	-11.205
▁фиг	-11.2051
▁даёт	-11.2053
▁вывод	-11.2059
▁Видно	-11.2065
▁симпатичное	-11.207
▁эффекта	-11.2074
▁просвечива	-11.2074
▁интересное	-11.2089
есь	-11.2092
▁Прош	-11.2095
кинуть	-11.2097
бра	-11.2099
▁заявлена	-11.2099
▁длинее	-11.2103
ими	-11.2108
▁длинн	-11.2109
▁тонковаты	-11.211
илось	-11.2116
▁покры	-11.2118
▁российск	-11.2139
▁полов	-11.2144
вая	-11.2146
▁точки	-11.2147
ГО	-11.2148
▁пошел	-11.215
▁перевод	-11.216
ган	-11.2185
ряд	-11.2193
НА	-11.22
▁сесть	-11.2201
оочень	-11.2201
▁кот	-11.2202
▁хорошим	-11.2209
ЫЕ	-11.2218
дн	-11.2222
▁09	-11.2222
▁легкое	-11.2233
▁числа	-11.2235
at	-11.2236
рос	-11.2238
▁кро	-11.224
дут	-11.2241
▁Вес	-11.2253
ваться	-11.2278
▁ужасна	-11.2282
▁/	-11.2282
▁ща	-11.2292
▁весна	-11.2305
дом	-11.2313
▁le	-11.2314
вается	-11.2317
сом	-11.233
Н	-11.2336
прошит	-11.2337
ге	-11.2355
вать	-11.2363
▁отлич	-11.2377
▁доказательства	-11.2381
было	-11.2386
▁материалу	-11.2393
ушки	-11.2398
закажу	-11.2402
ou	-11.2404
Беру	-11.2407
ден	-11.2409
us	-11.2421
ot	-11.2425
выше	-11.2432
▁92,	-11.2435
▁тип	-11.2441
▁куплен	-11.2452
▁русск	-11.2455
сегда	-11.2457
крой	-11.2463
чная	-11.2464
ставлю	-11.247
▁пуховика	-11.2477
▁нашли	-11.2477
▁клей	-11.2477
будет	-11.2483
шли	-11.2488
третьих	-11.2491
item	-11.2494
теплая	-11.2494
короткая	-11.2494
бедра	-11.2496
xxl	-11.2497
красивая	-11.2498
мимо	-11.2499
ходу	-11.2503
▁st	-11.2504
120	-11.2508
▁редко	-11.2508
▁ран	-11.2509
▁ши	-11.251
написала	-11.2512
▁лежал	-11.2516
шов	-11.2524
▁расположен	-11.2528
▁натяг	-11.2534
экспресс	-11.2543
▁Ок	-11.2552
▁одобрил	-11.2555
if	-11.2559
▁высоким	-11.2562
ыглядят	-11.2564
Али	-11.2568
105	-11.257
▁алиэкспрес	-11.257
▁ощущения	-11.2571
▁обьем	-11.2572
▁month	-11.2579
▁зип	-11.2583
▁Внешне	-11.2583
▁ДЕНЕГ	-11.2583
▁Качественная	-11.2583
▁Маломерки	-11.2583
▁Шикарно	-11.2583
▁впустую	-11.2583
▁встречу	-11.2583
▁корпоратив	-11.2583
▁крупная	-11.2583
▁куплю	-11.2583
▁молнией	-11.2583
▁накидка	-11.2583
▁повезет	-11.2583
▁покупатели	-11.2583
▁прогулок	-11.2583
▁производителя	-11.2583
▁пропечатан	-11.2583
▁распускается	-11.2583
▁ремня	-11.2583
▁сюрприз	-11.2583
▁умолял	-11.2583
▁чёрных	-11.2583
▁голое	-11.2583
▁название	-11.2583
лазят	-11.2583
▁Кнопк	-11.2583
▁напишу	-11.2583
▁главны	-11.2583
▁подождала	-11.2583
▁well	-11.2583
▁вылезает	-11.2583
▁китая	-11.2583
▁секси	-11.2583
▁выветрился	-11.2583
▁россии	-11.2583
▁общении	-11.2583
▁связаться	-11.2583
▁тепленькая	-11.2583
▁застегиваются	-11.2583
▁китайцы	-11.2583
▁российскому	-11.2583
▁легенсы	-11.2583
▁внутрь	-11.2583
▁детали	-11.2583
▁паетки	-11.2583
▁держать	-11.2583
▁ошибку	-11.2583
▁пересылку	-11.2583
▁ребенок	-11.2584
▁перетягивает	-11.2584
▁Выбирал	-11.2584
▁shipping	-11.2585
▁искусственная	-11.2585
▁замки	-11.2585
▁смешная	-11.2585
▁рваный	-11.2585
▁beautiful	-11.2586
▁застежка	-11.2586
▁прошлый	-11.2586
▁Чашк	-11.2586
▁стандартная	-11.2586
▁одинаковых	-11.2587
▁появятся	-11.2587
▁рваная	-11.2588
▁бриджи	-11.2589
▁своему	-11.2589
▁линии	-11.259
▁легкие	-11.2591
▁блеском	-11.2591
▁81	-11.2591
▁Лето	-11.2592
▁скатывается	-11.2593
▁транспортировка	-11.2593
▁идеальна	-11.2594
▁брюками	-11.2595
▁прочитала	-11.2597
▁Отдельно	-11.2597
▁реальный	-11.2597
▁140	-11.2599
▁мелкий	-11.2599
▁последние	-11.2601
▁замену	-11.2601
шила	-11.2601
▁приложила	-11.2602
▁искать	-11.2602
▁фабричное	-11.2603
▁Издели	-11.2603
▁хорошое	-11.2604
▁5*	-11.2604
▁Крайне	-11.2605
▁темные	-11.2605
▁имеются	-11.2606
▁подмышки	-11.2608
▁силы	-11.2608
▁высокую	-11.2613
▁:-(	-11.2613
.11.17	-11.2614
▁проходит	-11.2615
▁Омска	-11.2618
▁зимнее	-11.262
щего	-11.2622
▁перепутали	-11.2622
▁b	-11.2625
▁уведомление	-11.2628
тный	-11.2628
▁ди	-11.2629
▁воняют	-11.2632
▁Раз	-11.2633
▁китайско	-11.2633
▁other	-11.2637
▁Челябинска	-11.2639
▁великолепное	-11.2639
▁подумайте	-11.2645
▁надену	-11.2651
внутренний	-11.2655
Вы	-11.2658
▁se	-11.2658
казывал	-11.2663
▁руковах	-11.2677
in	-11.2678
▁гладить	-11.2684
▁затем	-11.2684
▁al	-11.2689
деланы	-11.2689
.06	-11.2691
▁стар	-11.2693
▁готовы	-11.2701
менно	-11.2702
pe	-11.2709
▁стоить	-11.2709
▁своими	-11.271
▁неудобные	-11.2712
▁указала	-11.272
▁98,	-11.272
▁капл	-11.2723
ЛЯ	-11.2725
носится	-11.2732
▁Какой	-11.2734
ешься	-11.2741
▁какими	-11.2748
▁флиса	-11.2765
▁вещью	-11.2766
ИК	-11.2771
▁мил	-11.2777
use	-11.2793
омбез	-11.2796
-64	-11.2797
возможно	-11.2801
качественный	-11.2807
Да	-11.2808
нд	-11.2813
▁свободного	-11.2819
▁испорчен	-11.2821
▁оправдал	-11.2823
▁77	-11.2831
▁случайно	-11.2843
▁114	-11.2844
▁странное	-11.2853
▁наши	-11.2853
▁Thi	-11.2854
▁объяснил	-11.2857
фо	-11.2865
▁вверху	-11.2884
1-2	-11.2896
удачная	-11.2898
дь	-11.2901
▁(((((	-11.2908
▁шил	-11.2911
ях	-11.2913
▁рукавам	-11.2924
говор	-11.2924
▁сборят	-11.2928
две	-11.2936
▁видите	-11.2945
вернуть	-11.2947
ские	-11.2952
пас	-11.2954
▁ста	-11.2966
▁проб	-11.2968
04	-11.297
▁прода	-11.2974
▁90-	-11.2985
щих	-11.2987
▁помят	-11.2987
▁маленько	-11.3006
аааа	-11.3008
-60	-11.3013
ld	-11.3016
нула	-11.302
ались	-11.3036
▁добра	-11.3044
▁кар	-11.3045
дойдет	-11.3063
ости	-11.3086
получ	-11.3092
отправил	-11.3092
асть	-11.3103
▁офис	-11.3112
▁красив	-11.3116
Ðo	-11.3116
зеленый	-11.3118
особенно	-11.3119
Жаль	-11.3119
42-44	-11.3119
кружево	-11.3119
сзади	-11.3119
рисунок	-11.3119
почти	-11.312
рубашка	-11.312
другому	-11.312
покупала	-11.312
▁дур	-11.3121
хорошее	-11.3121
▁говн	-11.3121
▁горе	-11.3122
▁пыль	-11.3123
разочарована	-11.3127
▁запрос	-11.313
пошито	-11.313
внизу	-11.3136
стирала	-11.3137
отправили	-11.3148
▁плоск	-11.3152
жать	-11.3154
▁Воронеж	-11.3158
▁250	-11.3162
дпись	-11.3162
ерхний	-11.3166
▁48-	-11.3172
▁петель	-11.3174
▁риск	-11.3181
пыталась	-11.3184
▁дешёв	-11.3186
▁отклонил	-11.3187
размерная	-11.3187
строчен	-11.3187
▁бесплатно	-11.3193
▁соответствовал	-11.3195
.12.2017	-11.3198
вяз	-11.32
▁маломер	-11.32
▁photo	-11.3203
▁петля	-11.3205
▁ягодиц	-11.3206
юстгальтер	-11.3206
▁Маломерят	-11.3208
▁Прекрасно	-11.3208
▁Сказать	-11.3208
▁Теплый	-11.3208
▁Тонкое	-11.3208
▁вельвет	-11.3208
▁девочке	-11.3208
▁жмут	-11.3208
▁линяют	-11.3208
▁людям	-11.3208
▁нетерпением	-11.3208
▁облегают	-11.3208
▁октябре	-11.3208
▁плащевка	-11.3208
▁поведет	-11.3208
▁появилась	-11.3208
▁распускаться	-11.3208
▁расцветку	-11.3208
▁температуре	-11.3208
▁торчало	-11.3208
▁трусишки	-11.3208
▁Нижегородск	-11.3208
▁градусах	-11.3208
▁разницы	-11.3208
▁тюль	-11.3208
▁Бирк	-11.3208
▁давят	-11.3208
▁ношения	-11.3208
▁ощущается	-11.3208
▁чёрной	-11.3208
▁последняя	-11.3208
▁промахнулась	-11.3208
▁хвалебны	-11.3208
концов	-11.3208
▁сохранности	-11.3208
▁договорились	-11.3208
▁ковта	-11.3208
▁фоне	-11.3208
▁Продавцом	-11.3208
Туника	-11.3208
▁заканчиваются	-11.3208
▁заедает	-11.3208
▁sleeves	-11.3208
▁потребовал	-11.3208
▁смешные	-11.3208
▁десять	-11.3208
▁исчезнет	-11.3209
▁комфортные	-11.3209
▁Сочи	-11.3209
▁быстрый	-11.3209
▁выбирать	-11.3209
▁подтверждения	-11.3209
▁скорей	-11.3209
▁соответст	-11.3209
▁ложится	-11.3209
▁бракованная	-11.3209
▁худых	-11.3209
▁впечатления	-11.321
УЮ	-11.321
▁платной	-11.321
▁предыдущих	-11.321
▁способ	-11.321
▁шарфа	-11.321
▁заплатить	-11.321
▁цепляется	-11.3211
▁карту	-11.3211
▁столь	-11.3211
▁ПЛОХО	-11.3211
▁выгляжу	-11.3211
▁ластовица	-11.3211
▁супруг	-11.3211
▁Достаточн	-11.3211
▁блузочка	-11.3211
▁лосин	-11.3212
▁утепленные	-11.3212
▁жалобу	-11.3212
▁повреждений	-11.3213
▁открою	-11.3213
▁информация	-11.3213
▁растянутся	-11.3213
▁просвечивать	-11.3213
▁центру	-11.3213
▁Обычные	-11.3214
▁предыдущие	-11.3214
▁честность	-11.3214
▁Длинна	-11.3215
▁открытку	-11.3216
нутренняя	-11.3216
▁посторонних	-11.3217
▁оверложен	-11.3217
▁гладкая	-11.3217
▁свету	-11.3219
▁комфортная	-11.3219
▁подделка	-11.3219
▁подкладку	-11.322
▁мужу	-11.3221
▁thanks	-11.3221
▁детский	-11.3221
▁понимание	-11.3223
.11.2017	-11.3225
▁настаивал	-11.3225
▁вещица	-11.3226
▁пришивать	-11.3227
▁небрежно	-11.3227
▁дефекты	-11.3228
▁повсюду	-11.3229
▁реагировал	-11.3232
▁целое	-11.3232
▁морочил	-11.3233
▁смотриться	-11.3235
▁ушли	-11.3236
▁up	-11.3237
▁продав	-11.3239
▁джинсах	-11.3239
▁стирали	-11.3239
▁домашнее	-11.324
▁боках	-11.324
▁ходила	-11.3242
▁нижнего	-11.3243
▁скрывает	-11.3243
▁обрабатывал	-11.3244
▁заправить	-11.3244
▁годом	-11.3246
▁китайский	-11.3246
▁продлевала	-11.3249
▁пробовала	-11.3249
резан	-11.3249
фор	-11.325
ания	-11.3254
▁буд	-11.3258
▁Новгорода	-11.3259
▁просить	-11.3259
▁прошли	-11.3262
▁пишите	-11.3264
чики	-11.3265
ню	-11.3273
▁попала	-11.3274
езд	-11.3277
▁страшного	-11.3279
▁налезло	-11.3285
▁Снял	-11.3295
▁никакая	-11.3295
▁порвана	-11.3302
▁Пух	-11.3303
чной	-11.3313
lit	-11.3315
-65	-11.3319
▁широкой	-11.332
▁обманули	-11.3321
▁му	-11.333
ивает	-11.333
казан	-11.334
ДЕ	-11.3343
▁противно	-11.3345
▁испачкан	-11.335
щий	-11.3358
▁счита	-11.3361
вязки	-11.3368
рят	-11.3369
▁синтепона	-11.3379
▁обработана	-11.338
▁нос	-11.3382
ины	-11.3383
▁простой	-11.3385
▁Хороше	-11.3388
▁наряд	-11.3398
▁Знал	-11.3402
ck	-11.3402
67	-11.3408
▁Лен	-11.3411
▁задней	-11.3417
▁состава	-11.3418
▁тепл	-11.342
довольна	-11.3442
▁Э	-11.3446
▁Нижне	-11.3447
ура	-11.3452
сов	-11.3455
▁род	-11.3456
x	-11.3459
▁оригинал	-11.3477
▁получаю	-11.3484
руга	-11.3488
обл	-11.3493
ЕЕ	-11.3494
Про	-11.3496
пят	-11.3498
день	-11.3511
▁didn	-11.3521
▁мешковато	-11.3522
▁цветами	-11.3538
оно	-11.3541
▁дешевое	-11.3543
ятся	-11.3545
правлен	-11.3547
аж	-11.3548
15	-11.3549
▁разочаровали	-11.3562
;(	-11.3565
▁этими	-11.3568
ять	-11.3573
Что	-11.3576
▁4-	-11.3588
ность	-11.36
тягивает	-11.3604
▁Положил	-11.3609
▁образова	-11.3613
▁вашем	-11.3616
перед	-11.3629
▁вложил	-11.3634
▁несоответствует	-11.3645
tle	-11.3656
фе	-11.3677
равно	-11.3678
▁штука	-11.3687
▁муж	-11.3688
ИЛИ	-11.369
▁носиться	-11.3703
▁образовали	-11.3708
▁вкус	-11.3718
▁РАЗМЕРА	-11.3721
тик	-11.3744
110	-11.375
▁меньшего	-11.3758
ретензий	-11.3774
▁115	-11.378
shirt	-11.3781
▁огорчил	-11.3783
ждите	-11.3784
▁сидел	-11.3784
рукова	-11.3786
Нитки	-11.3786
вещь	-11.3786
плюс	-11.3786
Пришли	-11.3786
первый	-11.3787
▁сайт	-11.3787
ment	-11.3788
Для	-11.3789
Куртка	-11.3791
▁переди	-11.3797
▁доехал	-11.3801
▁Ф	-11.3804
▁нед	-11.3805
▁напечатан	-11.3811
▁давал	-11.3813
Из	-11.3814
ище	-11.3817
пра	-11.3819
вроде	-11.3819
▁холод	-11.382
▁стягивает	-11.382
сшита	-11.3826
▁бархат	-11.3827
сет	-11.383
▁Нормально	-11.3834
▁изображен	-11.384
▁Единственно	-11.384
▁любим	-11.3842
▁чёрным	-11.3847
▁срокам	-11.3848
ложен	-11.3854
▁X	-11.3856
Дону	-11.3858
▁удовольствие	-11.3863
((((((	-11.3864
▁Класс	-11.3867
ast	-11.3868
тличается	-11.3868
▁свободны	-11.3869
аньше	-11.3871
действ	-11.3872
▁10.01	-11.3873
▁thin	-11.3874
▁send	-11.3874
▁УЖАСНО	-11.3874
▁parcel	-11.3874
▁would	-11.3874
▁Действительно	-11.3874
▁Замечательно	-11.3874
▁Звезд	-11.3874
▁Наконец	-11.3874
▁Нормальная	-11.3874
▁Приятные	-11.3874
▁СПБ	-11.3874
▁Сарафан	-11.3874
▁Чистая	-11.3874
▁влитая	-11.3874
▁выложу	-11.3874
▁ладонь	-11.3874
▁мягче	-11.3874
▁невысоко	-11.3874
▁недоразумение	-11.3874
▁останется	-11.3874
▁печати	-11.3874
▁пешком	-11.3874
▁плесени	-11.3874
▁позднюю	-11.3874
▁помещении	-11.3874
▁посвободней	-11.3874
▁продлевать	-11.3874
▁ровненько	-11.3874
▁скажешь	-11.3874
▁сомнения	-11.3874
ussia	-11.3874
▁администрации	-11.3874
▁завершен	-11.3874
▁лишние	-11.3874
▁лучший	-11.3874
▁лучших	-11.3874
▁подростков	-11.3874
▁придумать	-11.3874
▁спинка	-11.3874
▁желания	-11.3874
▁Вывод	-11.3874
▁купишь	-11.3874
▁думаете	-11.3874
▁Здесь	-11.3874
▁представить	-11.3874
▁куски	-11.3874
▁свободен	-11.3875
▁выветривается	-11.3875
▁НГ	-11.3875
▁вешалке	-11.3875
▁помине	-11.3875
▁остается	-11.3875
▁речи	-11.3875
▁БОЛЬШЕ	-11.3875
▁респект	-11.3875
▁грязным	-11.3876
▁Шикарная	-11.3876
▁присутствуют	-11.3876
▁слоя	-11.3876
▁синтетические	-11.3876
▁полосок	-11.3876
▁мышь	-11.3876
▁шеи	-11.3876
▁ошибся	-11.3876
▁returned	-11.3876
▁жёлтый	-11.3876
▁обоих	-11.3877
▁годится	-11.3877
▁определиться	-11.3877
▁бретельки	-11.3878
▁неудачно	-11.3878
▁задняя	-11.3878
▁петельки	-11.3878
▁собакой	-11.3878
▁дороговато	-11.3878
▁отвалилась	-11.3879
▁months	-11.3879
▁оторвалась	-11.3879
▁Еле	-11.3879
▁шубы	-11.3879
▁шкафу	-11.3879
▁вискоза	-11.388
▁длиной	-11.388
▁попался	-11.388
▁одинаковый	-11.3881
▁гардеробе	-11.3881
▁возмещение	-11.3881
▁наглый	-11.3882
▁началось	-11.3882
▁Разочарование	-11.3882
▁боковой	-11.3883
▁Юбку	-11.3883
▁чувствую	-11.3883
▁abo	-11.3884
▁КАЧЕСТВО	-11.3884
▁Size	-11.3884
▁пройме	-11.3884
▁поддеть	-11.3884
▁Очки	-11.3884
▁Постирала	-11.3885
▁справа	-11.3885
▁крепко	-11.3885
руки	-11.3885
▁колготками	-11.3885
▁целая	-11.3885
▁своём	-11.3886
▁простая	-11.3887
▁Минусы	-11.3888
▁суперская	-11.3888
▁переживала	-11.3888
▁показывает	-11.3889
▁жилетки	-11.389
▁комками	-11.389
лку	-11.3894
▁блестящие	-11.3894
▁желтым	-11.3894
▁европейский	-11.3895
▁желание	-11.3897
▁попытки	-11.3899
▁идеальные	-11.3899
▁стоила	-11.3901
▁обрезала	-11.3903
▁глубокие	-11.3903
▁изменить	-11.3904
▁ниточка	-11.3904
▁слав	-11.3905
▁уютно	-11.3911
▁Наверное	-11.3916
падает	-11.3916
▁ха	-11.3917
▁спадают	-11.3917
▁активно	-11.3919
▁послал	-11.3922
▁вырезом	-11.3926
.12.17	-11.3928
▁воды	-11.3929
▁объёмы	-11.3932
▁девать	-11.3938
▁пуговицу	-11.3941
▁(3	-11.3943
▁расстроила	-11.3943
▁забыли	-11.3944
▁Подробне	-11.3944
▁спас	-11.3947
▁восторга	-11.3953
▁образ	-11.3954
▁врал	-11.3958
▁широковаты	-11.3961
▁приклеены	-11.3962
▁боковом	-11.3979
▁мимо	-11.3979
резали	-11.3982
▁страх	-11.3998
▁дорогой	-11.3998
ашей	-11.4001
дея	-11.4004
▁деть	-11.4007
▁бюстгальтера	-11.4009
вет	-11.4013
▁номера	-11.403
▁принят	-11.4041
▁Оч	-11.4045
▁широки	-11.4059
▁шар	-11.4062
▁определенно	-11.4063
заказываю	-11.4064
66	-11.4077
▁приятного	-11.4077
▁Блузк	-11.4077
ХЛ	-11.4081
строчены	-11.4082
▁Отда	-11.4093
НИ	-11.4094
▁месяце	-11.4096
КО	-11.4097
▁внешнем	-11.4105
▁тра	-11.4108
▁e	-11.4126
ался	-11.4129
▁купил	-11.4134
▁говорить	-11.4145
▁оста	-11.4165
бит	-11.4173
▁ворота	-11.4177
красивый	-11.4186
▁дополнительно	-11.4186
▁позор	-11.4187
▁вор	-11.4188
большая	-11.4188
▁защит	-11.4189
!!!!!!!!!!!!!!!	-11.4189
соответствие	-11.4191
большой	-11.4192
аккуратно	-11.4196
se	-11.4202
▁самым	-11.4205
▁Дела	-11.4211
▁времен	-11.4217
▁платьев	-11.4229
лек	-11.4235
код	-11.4249
Шл	-11.425
▁Иркутска	-11.4255
тво	-11.4258
▁*	-11.4258
Он	-11.4264
▁выбран	-11.4264
▁запросил	-11.4271
тк	-11.4283
▁Полоск	-11.4286
▁непонятное	-11.4286
вся	-11.4286
сылать	-11.4302
просил	-11.4303
▁Самы	-11.431
оответствуют	-11.4334
▁растянут	-11.4335
is	-11.434
▁положительны	-11.4353
смотря	-11.4365
▁тол	-11.4387
▁хо	-11.4398
▁неприятное	-11.44
▁урод	-11.4401
▁результат	-11.4412
ПО	-11.4414
▁глаз	-11.4421
▁вязан	-11.4429
▁открыв	-11.4432
▁против	-11.4445
Петербург	-11.4448
▁41	-11.4453
▁нога	-11.4456
▁красно	-11.4457
▁мерз	-11.4457
▁отсутстви	-11.4458
сво	-11.446
вязка	-11.446
▁полос	-11.446
▁всеми	-11.4466
▁срез	-11.4473
ворот	-11.4476
▁пункта	-11.4477
!!!!!!!!!!!!!!!!	-11.4482
▁подробно	-11.449
курьер	-11.4493
25	-11.4493
серо	-11.4495
▁похвал	-11.4497
летнего	-11.4499
смотрите	-11.45
обычный	-11.45
Теперь	-11.45
горловина	-11.45
Просто	-11.45
тонкие	-11.45
менее	-11.45
брюки	-11.45
Кофта	-11.45
слишком	-11.45
футболка	-11.45
Поэтому	-11.45
▁Выбрал	-11.4501
пакет	-11.4502
купила	-11.4502
джинсы	-11.4502
дырка	-11.4503
жалко	-11.4503
подойдет	-11.4504
Написала	-11.4505
всегда	-11.4514
▁обо	-11.4516
▁раст	-11.4518
максимум	-11.4522
▁жа	-11.4527
▁рассчитан	-11.4529
▁начес	-11.4531
▁Месяц	-11.4535
думк	-11.4542
Ни	-11.4547
▁понимает	-11.4549
▁кор	-11.4559
▁создает	-11.4561
▁высылал	-11.4561
▁черным	-11.4561
ернули	-11.4564
мол	-11.4571
▁удачны	-11.4572
▁трекинг	-11.4578
▁антистатик	-11.4581
▁пойму	-11.4582
▁живу	-11.4584
▁торчащ	-11.4585
▁fit	-11.4586
▁Плат	-11.4588
▁кожзам	-11.4589
▁And	-11.4589
▁БЕРИТЕ	-11.4589
▁Великолепно	-11.4589
▁надеваешь	-11.4589
▁насквозь	-11.4589
▁нюанс	-11.4589
▁отваливаются	-11.4589
▁планировала	-11.4589
▁ребят	-11.4589
▁сексуально	-11.4589
▁хлипкая	-11.4589
ank	-11.4589
ЙТЕ	-11.4589
▁Внешни	-11.4589
▁Манжеты	-11.4589
▁Понравилась	-11.4589
▁Симпатичная	-11.4589
▁вручную	-11.4589
▁дороге	-11.4589
▁заблуждение	-11.4589
▁качественнее	-11.4589
▁наощупь	-11.4589
▁ноябре	-11.4589
▁одноразовая	-11.4589
▁потраченно	-11.4589
▁пятнышко	-11.4589
▁садятся	-11.4589
▁ссылке	-11.4589
▁туники	-11.4589
▁утверждает	-11.4589
▁чашке	-11.4589
▁чехол	-11.4589
▁чёткий	-11.4589
вшись	-11.4589
▁Люди	-11.4589
▁наполовину	-11.4589
▁подобного	-11.4589
▁тугие	-11.4589
▁Реально	-11.4589
▁пошире	-11.4589
made	-11.4589
▁огромен	-11.4589
▁впрочем	-11.4589
▁уйдёт	-11.4589
▁движение	-11.4589
▁плюшевая	-11.4589
▁присутствовал	-11.4589
▁тяп	-11.4589
▁приедет	-11.4589
▁подвале	-11.4589
▁уйдет	-11.4589
▁Средне	-11.4589
▁вдоль	-11.4589
▁выйдет	-11.4589
▁впору	-11.4589
▁Маечк	-11.4589
▁38-40	-11.4589
▁обещанных	-11.4589
▁фланель	-11.4589
▁беременных	-11.4589
▁осенняя	-11.4589
▁сплошной	-11.4589
▁Белье	-11.4589
▁одновременно	-11.4589
▁херня	-11.4589
▁портят	-11.4589
▁Изначально	-11.4589
▁оплатить	-11.4589
▁ведома	-11.4589
▁фотках	-11.4589
▁days	-11.4589
▁оригинальная	-11.4589
▁эластичная	-11.459
▁every	-11.459
▁ошибки	-11.459
▁обращаться	-11.459
▁померить	-11.459
▁поползли	-11.459
▁Подошли	-11.459
▁заверил	-11.4591
▁прикольный	-11.4591
▁прорезаны	-11.4591
▁рискнула	-11.4591
▁Благодарю	-11.4591
▁матерьял	-11.4591
▁cm	-11.4591
▁застегнулась	-11.4591
▁закреплены	-11.4591
▁складок	-11.4591
▁противная	-11.4592
▁ПОД	-11.4592
▁perfect	-11.4592
▁подворачивать	-11.4592
▁медленная	-11.4592
▁родов	-11.4592
▁предполагала	-11.4592
▁посадкой	-11.4593
▁увидеть	-11.4593
▁возместить	-11.4593
▁высылать	-11.4593
▁сорочку	-11.4593
▁замшу	-11.4593
▁репутацию	-11.4594
▁средний	-11.4594
▁катушки	-11.4594
▁ситуации	-11.4594
▁красными	-11.4594
▁блестки	-11.4595
▁Оплатила	-11.4595
ильный	-11.4595
▁фигурой	-11.4595
▁симпатичные	-11.4596
▁способом	-11.4596
▁зеленое	-11.4598
▁мелочи	-11.4598
▁отвратное	-11.4598
▁понравится	-11.4598
▁арбитраж	-11.4598
***	-11.4599
▁качественную	-11.4599
▁Оказалось	-11.4599
▁Сколько	-11.4599
▁опира	-11.4599
▁Экспресс	-11.4599
▁тёмный	-11.46
▁стройн	-11.46
▁вещами	-11.4601
мои	-11.4601
▁06	-11.4602
▁сидело	-11.4602
▁пуговицами	-11.4604
▁Шикарный	-11.4604
▁Впечатление	-11.4605
▁обработанные	-11.4605
▁Казань	-11.4606
▁10-12	-11.4606
▁заужены	-11.4606
▁спросил	-11.4606
▁купоном	-11.4607
▁мск	-11.4607
▁заправлять	-11.4609
▁игнорирует	-11.4609
▁постирали	-11.461
▁am	-11.4611
▁Снизу	-11.4612
▁Весь	-11.4613
▁Куда	-11.4613
▁стороной	-11.4613
▁побоялась	-11.4613
▁локтях	-11.4613
▁тщательно	-11.4614
▁приходили	-11.4614
кую	-11.4615
▁red	-11.4617
.10.2017	-11.462
▁2000	-11.4621
▁указанной	-11.4621
▁пустая	-11.4622
▁августе	-11.4623
▁кругом	-11.4623
инки	-11.4624
▁ехала	-11.4624
▁косой	-11.4626
▁облом	-11.463
▁Аккуратно	-11.463
▁пошиве	-11.4633
▁крас	-11.4635
ивают	-11.464
ri	-11.4643
▁надежде	-11.4647
▁вставка	-11.4647
-84	-11.4651
тоже	-11.4654
▁фига	-11.4654
▁стык	-11.4658
▁вырезы	-11.4661
вис	-11.4667
.10.17	-11.4672
зы	-11.4674
мяг	-11.4683
были	-11.4684
▁боков	-11.4684
еться	-11.4693
▁бедрами	-11.4693
▁94,	-11.47
велась	-11.4702
▁93,	-11.4704
▁итак	-11.4705
▁Доставлен	-11.471
▁возвращал	-11.4716
лин	-11.4723
ok	-11.4728
▁костюме	-11.4732
пущен	-11.474
▁сборка	-11.4744
вые	-11.4745
▁Обещал	-11.4747
▁закрытия	-11.4748
стала	-11.4759
▁Футболк	-11.476
▁44-	-11.4763
ните	-11.4776
орчит	-11.4779
▁набит	-11.4779
!!!!!!!!!!	-11.479
▁ап	-11.4797
ЕН	-11.4803
(((((((	-11.4804
!!!!!!!!!!!!!!	-11.4805
91	-11.4808
▁кофт	-11.4808
▁реши	-11.4812
▁фасону	-11.4813
▁весом	-11.4824
▁кур	-11.4827
58	-11.4828
ями	-11.4837
▁Заказа	-11.4856
рать	-11.4861
одно	-11.4868
▁довольная	-11.4869
▁достав	-11.4874
ировал	-11.4884
▁тонким	-11.4896
▁целы	-11.4903
лан	-11.4912
▁мелки	-11.4916
тали	-11.4918
Даж	-11.492
▁узковат	-11.4924
вл	-11.4931
▁задержал	-11.4949
▁испортило	-11.4955
▁стр	-11.4957
ВО	-11.4963
ивала	-11.4964
▁покупа	-11.4971
анный	-11.4973
приятные	-11.4981
to	-11.4987
▁силиконов	-11.5007
▁порваны	-11.5009
▁распущен	-11.5019
родовец	-11.5026
▁разреза	-11.5033
▁Низко	-11.5034
ложенно	-11.5035
▁широковат	-11.5042
▁ВЕ	-11.5058
дарю	-11.5087
ice	-11.5089
▁Смотрит	-11.5106
рова	-11.5119
500	-11.512
▁размерах	-11.5123
▁118	-11.5129
▁просвет	-11.515
Ужас	-11.5158
▁жестко	-11.5161
читавшись	-11.5166
▁малая	-11.5175
цен	-11.518
?)	-11.5181
▁Дав	-11.5182
.08.17	-11.5186
ший	-11.5198
38	-11.5211
▁перекос	-11.5212
тянет	-11.5212
йду	-11.5212
ставки	-11.5218
▁видеть	-11.5237
какой	-11.5249
енные	-11.525
тро	-11.5255
▁отмен	-11.5256
зато	-11.5256
▁свет	-11.5262
▁pa	-11.5262
▁взял	-11.5267
прозрачная	-11.5269
сегодня	-11.5269
Хорошо	-11.5269
Длина	-11.527
Синтетика	-11.527
расстроена	-11.527
возврат	-11.527
резинки	-11.527
обманщик	-11.527
мягкие	-11.527
российский	-11.527
свитер	-11.527
пояс	-11.527
молния	-11.527
карманы	-11.5271
хороший	-11.5279
▁машин	-11.5285
555	-11.5287
сказал	-11.5287
наружи	-11.5287
ировать	-11.5288
нижаю	-11.5294
▁круг	-11.5298
редней	-11.5305
ion	-11.5306
▁домашне	-11.531
▁воздух	-11.5315
▁реклам	-11.5317
▁прикольно	-11.5318
▁неверн	-11.5319
сходя	-11.5319
▁привет	-11.532
▁силуэт	-11.5324
▁Красиво	-11.5324
пать	-11.5326
Будет	-11.5326
▁возместил	-11.5329
▁тысяч	-11.533
▁позвонил	-11.5332
▁лишне	-11.5338
▁вобще	-11.5342
▁един	-11.5343
▁оранжев	-11.5344
хожу	-11.5345
сели	-11.5346
▁атлас	-11.5348
▁стандарт	-11.535
▁забыл	-11.535
писал	-11.5351
▁начинают	-11.5353
▁собирает	-11.5355
▁ВЕРНУЛ	-11.5356
дома	-11.5357
▁продают	-11.5357
шке	-11.5358
Peterburg	-11.5358
▁different	-11.5358
▁had	-11.5358
▁smell	-11.5358
▁Боялась	-11.5358
▁МАГАЗИН	-11.5358
▁МОШЕННИК	-11.5358
▁Понравилось	-11.5358
▁Рукова	-11.5358
▁Считаю	-11.5358
▁ФОТО	-11.5358
▁вперёд	-11.5358
▁доказать	-11.5358
▁затерялся	-11.5358
▁казалось	-11.5358
▁обратите	-11.5358
▁охотно	-11.5358
▁перья	-11.5358
▁площадк	-11.5358
▁подобие	-11.5358
▁потратить	-11.5358
▁трусах	-11.5358
▁утеплитель	-11.5358
▁чашку	-11.5358
▁настоящий	-11.5358
▁нервов	-11.5358
▁обманывают	-11.5358
▁порядок	-11.5358
▁рекорд	-11.5358
▁элегантно	-11.5358
▁package	-11.5358
▁Форм	-11.5358
▁комментариях	-11.5358
▁мешке	-11.5358
▁посмотрю	-11.5358
▁придти	-11.5358
▁сдэк	-11.5358
▁резко	-11.5358
▁тебя	-11.5358
▁пользоваться	-11.5358
▁учесть	-11.5358
▁исполнения	-11.5358
▁гуд	-11.5358
▁клеенка	-11.5358
▁отдых	-11.5358
▁ниткой	-11.5358
▁называется	-11.5358
▁Ниток	-11.5358
▁подъюбник	-11.5358
▁ссылаясь	-11.5358
▁липкий	-11.5358
▁гипюр	-11.5358
▁бежевая	-11.5358
▁whi	-11.5358
▁удивление	-11.5358
▁ЗАКАЗАЛА	-11.5358
▁заморачиваться	-11.5358
▁зоне	-11.5358
▁шапке	-11.5358
▁хрустит	-11.5358
▁заказанному	-11.5358
▁марта	-11.5358
▁значок	-11.5358
▁отказаться	-11.5358
▁мною	-11.5358
▁выделяет	-11.5358
▁ножки	-11.5358
▁бесшовное	-11.5358
▁нитей	-11.5358
▁нанесен	-11.5358
▁резинок	-11.5358
▁параметров	-11.5359
▁прослужит	-11.5359
▁одеждой	-11.5359
▁Отслеживался	-11.5359
▁винный	-11.5359
▁необходимости	-11.5359
▁отменное	-11.5359
▁знаков	-11.5359
▁smaller	-11.5359
ручной	-11.5359
▁застегнула	-11.5359
▁sweater	-11.5359
▁обмануть	-11.5359
▁выдачи	-11.5359
▁тавар	-11.536
▁пахло	-11.536
▁мере	-11.536
▁рюш	-11.536
▁вязаное	-11.536
▁Брючки	-11.536
▁вмешалась	-11.536
▁благородный	-11.536
▁приталенный	-11.536
▁вышивки	-11.536
▁прислан	-11.536
▁оправдались	-11.536
▁информацию	-11.536
▁бирюзовый	-11.5361
▁огорчилась	-11.5361
▁счастлива	-11.5361
▁отстираются	-11.5361
▁сборки	-11.5361
▁задумано	-11.5361
▁розовой	-11.5362
▁грязь	-11.5362
▁надписи	-11.5362
▁тряпкой	-11.5362
▁присылал	-11.5362
▁ориентиру	-11.5362
▁влезу	-11.5362
▁ответить	-11.5362
▁выкинуты	-11.5363
▁приличный	-11.5363
▁привёз	-11.5363
▁вежливо	-11.5363
▁головы	-11.5363
вший	-11.5363
▁вышли	-11.5363
▁восторгов	-11.5364
▁желаю	-11.5364
▁появилось	-11.5364
▁прошёл	-11.5364
▁образует	-11.5364
▁натурального	-11.5364
▁желтоват	-11.5364
▁берет	-11.5365
▁ленты	-11.5366
▁скользкая	-11.5366
▁пушап	-11.5366
▁подтягивать	-11.5366
▁прошили	-11.5366
ation	-11.5366
▁оставлю	-11.5367
▁шубу	-11.5367
▁сорочки	-11.5368
▁Неплохой	-11.5368
▁Спин	-11.5369
▁жилетку	-11.5369
▁Свободно	-11.5369
▁выходить	-11.5369
▁Ерунда	-11.5369
▁Соответственно	-11.5369
▁делаю	-11.5369
▁тепленькие	-11.5369
▁Разочаровалась	-11.5369
▁сплошное	-11.5369
▁подарила	-11.5369
▁лёгкое	-11.537
▁кри	-11.5373
▁успели	-11.5374
▁вышла	-11.5375
▁говорится	-11.5375
▁завышенная	-11.5375
▁открытый	-11.5375
▁доллара	-11.5376
▁бумага	-11.5376
▁Интересно	-11.5376
▁aliexpress	-11.5376
▁сомневалась	-11.5376
▁Никакой	-11.5377
▁клевые	-11.5377
▁сдавливает	-11.5378
▁центре	-11.5379
▁браслет	-11.5379
▁получились	-11.538
▁трет	-11.5381
▁натяжкой	-11.5382
▁работе	-11.5382
дешь	-11.5382
▁желтого	-11.5383
▁дарить	-11.5384
▁выполнены	-11.5386
▁добавил	-11.5386
▁никакое	-11.5387
▁отдали	-11.5388
▁сантиметра	-11.5389
▁подвела	-11.5389
▁рвутся	-11.5391
▁детские	-11.5392
▁полученный	-11.5392
▁уходит	-11.5393
▁выкройка	-11.5394
▁Год	-11.5394
▁Кому	-11.5394
▁замша	-11.5394
▁точные	-11.5396
▁решилась	-11.5398
▁несуразный	-11.5398
▁объемная	-11.5399
▁наклейки	-11.5399
▁ужасным	-11.5399
▁повреждена	-11.5402
▁растянута	-11.5402
▁Муж	-11.5405
▁кота	-11.541
▁пяти	-11.5412
▁дачи	-11.5413
▁натягиваются	-11.5413
▁попытк	-11.5415
((((((((((((	-11.5416
▁ярлыке	-11.5417
▁Мск	-11.5421
▁зашила	-11.5423
▁добросовестный	-11.5428
▁скор	-11.543
▁нормальн	-11.5434
прод	-11.544
вол	-11.5444
▁хожу	-11.545
▁:-)	-11.5451
▁Мала	-11.5455
76	-11.5459
нно	-11.5462
▁опознавательны	-11.5467
▁компенсировал	-11.5468
▁рад	-11.5471
▁плечами	-11.5476
▁приехали	-11.548
▁маленькими	-11.5486
▁третьих	-11.549
положил	-11.5494
▁максимально	-11.5497
ходите	-11.5497
▁прокрашен	-11.5505
▁худым	-11.5509
етка	-11.5511
▁низкой	-11.5514
▁thing	-11.5518
гляд	-11.5518
▁выполнена	-11.5524
есс	-11.5525
▁отличие	-11.5529
КУ	-11.5536
▁кажд	-11.5537
▁убрала	-11.554
▁минусом	-11.554
▁такому	-11.5541
▁пла	-11.5555
▁необычная	-11.5555
▁некачественная	-11.5556
иваются	-11.5559
топ	-11.557
тягивается	-11.5571
▁потеряет	-11.5577
▁43	-11.558
▁притален	-11.5581
▁спором	-11.5582
▁кружевом	-11.5583
▁f	-11.5586
▁портить	-11.5593
ТО	-11.5595
▁;)	-11.5596
▁голова	-11.5598
▁ужаса	-11.5601
▁высше	-11.5602
.07.	-11.5604
▁ХХХ	-11.561
крытие	-11.5611
18	-11.5615
63	-11.5623
яла	-11.5627
▁5+++	-11.5627
тные	-11.5634
▁качественным	-11.5635
-67	-11.5635
▁кашемира	-11.5635
▁толко	-11.5635
54	-11.5655
▁закр	-11.5661
▁бр	-11.5667
▁возник	-11.5672
-3	-11.5673
▁отслежива	-11.568
шивка	-11.569
▁пиджака	-11.5693
▁бюста	-11.5694
ющая	-11.5697
▁.....	-11.5702
▁Продав	-11.5705
▁лента	-11.5707
po	-11.5709
▁высокое	-11.5712
▁кос	-11.5713
ткать	-11.5717
ью	-11.5717
))))))	-11.5741
каз	-11.5743
▁испортила	-11.5748
!!!!!!!!!	-11.5749
▁большом	-11.5754
▁заказано	-11.5763
▁2)	-11.5772
▁itao	-11.5783
▁обхвате	-11.5791
▁отправление	-11.5792
реально	-11.5792
строчка	-11.5793
▁бал	-11.5796
▁шаг	-11.5802
чко	-11.5807
чего	-11.5811
ОЕ	-11.5816
▁плечев	-11.5816
▁стандартно	-11.5818
АХ	-11.5819
▁выреза	-11.5821
служ	-11.5828
▁обычное	-11.5829
▁возврату	-11.5837
▁зашит	-11.5847
▁ан	-11.585
▁бул	-11.5857
▁душ	-11.5861
нск	-11.5897
ших	-11.5901
чё	-11.5902
▁ша	-11.5908
▁Сдела	-11.5909
нное	-11.591
лить	-11.592
.09.17	-11.5928
месь	-11.5932
102	-11.594
очками	-11.5941
ИЕ	-11.5947
ely	-11.5951
▁успе	-11.5953
▁открываю	-11.5958
▁Буде	-11.5966
▁la	-11.5968
брал	-11.5969
ne	-11.5972
ющий	-11.5977
▁Крас	-11.5978
▁жир	-11.5984
97	-11.5987
▁ne	-11.5992
аз	-11.6009
ехал	-11.6017
▁черно	-11.6018
▁зацеп	-11.6019
▁купальника	-11.6025
тки	-11.6025
▁указанным	-11.6027
ТЬ	-11.6031
▁пижам	-11.6034
xs	-11.6037
тит	-11.6043
смотрела	-11.6049
открыл	-11.6055
ОН	-11.6056
чет	-11.6059
▁приятны	-11.6063
▁тесн	-11.6065
кам	-11.607
ывает	-11.6081
строчки	-11.6084
Вообще	-11.6087
Ф	-11.6098
▁отпуск	-11.6099
44-46	-11.61
енка	-11.61
синего	-11.6101
большую	-11.6102
▁август	-11.6103
Может	-11.6103
звезд	-11.6103
полное	-11.6103
теплые	-11.6103
объем	-11.6103
тёплая	-11.6103
капюшон	-11.6103
короткий	-11.6103
почему	-11.6103
хорошая	-11.6104
подошел	-11.6104
164	-11.6104
XXL	-11.6105
воротник	-11.6105
продовец	-11.6105
подошла	-11.6106
▁перекошен	-11.6113
▁понял	-11.6114
наверное	-11.6119
▁разочарован	-11.612
▁добав	-11.6121
пециально	-11.6122
ur	-11.6122
168	-11.6123
▁сантиметр	-11.6129
трой	-11.613
▁оверлок	-11.6131
▁планк	-11.6131
103	-11.6132
РОСТО	-11.6136
▁Дал	-11.6139
▁спандекс	-11.614
▁подруга	-11.6142
▁команд	-11.6142
Вот	-11.6144
▁Омск	-11.6144
править	-11.6146
▁стран	-11.6148
▁каблук	-11.6153
▁единственно	-11.6153
ang	-11.6158
▁полинял	-11.6158
крашен	-11.6163
▁Плать	-11.6165
▁Прислал	-11.6166
▁слез	-11.617
▁Порадовал	-11.6178
▁легинс	-11.6181
▁бумажн	-11.6182
▁рван	-11.6185
▁28.11	-11.6186
Всем	-11.6186
ственно	-11.6187
▁шик	-11.6188
едра	-11.6188
▁фирменн	-11.6188
▁обратила	-11.6188
▁колит	-11.6188
ворачивается	-11.6188
▁гуля	-11.6189
▁Благо	-11.619
▁выглядет	-11.619
rder	-11.6191
▁want	-11.6191
▁Прозрачная	-11.6191
▁Фигня	-11.6191
▁актуальн	-11.6191
▁There	-11.6191
▁give	-11.6191
▁poor	-11.6191
▁purchase	-11.6191
▁Казани	-11.6191
▁Обманщик	-11.6191
▁ПОКУПАЙТЕ	-11.6191
▁Свердловск	-11.6191
▁ТКАНЬ	-11.6191
▁вокруг	-11.6191
▁выполнил	-11.6191
▁горловину	-11.6191
▁горчичный	-11.6191
▁заниматься	-11.6191
▁здравствуйте	-11.6191
▁картинку	-11.6191
▁килограмм	-11.6191
▁кусков	-11.6191
▁лучшие	-11.6191
▁маркировка	-11.6191
▁мокрый	-11.6191
▁надевании	-11.6191
▁недостатков	-11.6191
▁незаметно	-11.6191
▁отслуживалась	-11.6191
▁подумать	-11.6191
▁положении	-11.6191
▁посоветовать	-11.6191
▁потолще	-11.6191
▁претензию	-11.6191
▁приложу	-11.6191
▁пряжи	-11.6191
▁пуговки	-11.6191
▁температуру	-11.6191
▁третья	-11.6191
▁угадать	-11.6191
▁узнать	-11.6191
▁укоротить	-11.6191
▁химией	-11.6191
▁шнурки	-11.6191
▁cheap	-11.6191
▁disappointed	-11.6191
▁Тёплый	-11.6191
▁назовешь	-11.6191
▁обращени	-11.6191
▁подошол	-11.6191
▁разойдется	-11.6191
▁фиолетового	-11.6191
▁Большая	-11.6191
▁любовь	-11.6191
▁голубая	-11.6191
▁дорогу	-11.6191
▁исправлять	-11.6191
▁мелкую	-11.6191
▁дождались	-11.6191
▁сходятся	-11.6191
▁ОТКРЫЛА	-11.6191
▁xxs	-11.6191
▁soft	-11.6191
▁waist	-11.6191
▁Бюст	-11.6191
▁богато	-11.6191
▁голубые	-11.6191
▁расползается	-11.6191
▁Качественный	-11.6191
▁обрадовалась	-11.6191
▁третью	-11.6191
▁coat	-11.6191
▁плюш	-11.6191
▁суперское	-11.6191
▁шапочки	-11.6191
близи	-11.6191
▁fine	-11.6191
▁связался	-11.6191
▁мерки	-11.6191
▁мужская	-11.6191
▁москвы	-11.6191
▁растянулся	-11.6191
▁Ходить	-11.6191
▁молниеносная	-11.6191
▁мягенький	-11.6191
▁начать	-11.6192
▁интереснее	-11.6192
▁Страз	-11.6192
▁ездить	-11.6192
▁бесплатная	-11.6192
▁открывается	-11.6192
▁приятнее	-11.6192
▁фуфло	-11.6192
▁Плотный	-11.6192
▁Выслал	-11.6192
▁бесшовные	-11.6192
▁достался	-11.6192
▁ахти	-11.6192
▁зацепкой	-11.6192
▁печать	-11.6192
▁внутренние	-11.6192
▁обалденный	-11.6192
▁учётом	-11.6192
перестраховалась	-11.6192
▁бомж	-11.6192
▁согласия	-11.6192
▁кусками	-11.6192
▁деталь	-11.6192
▁сравнить	-11.6192
▁груз	-11.6192
▁шикарные	-11.6193
▁чудесная	-11.6193
▁неточное	-11.6193
▁Дырка	-11.6193
▁выкидывать	-11.6193
▁подходящ	-11.6193
▁втором	-11.6193
▁выбирайте	-11.6193
▁взрослого	-11.6193
▁коленках	-11.6193
▁полоску	-11.6194
▁подарочки	-11.6194
▁Покупайте	-11.6194
▁телесно	-11.6194
▁курточку	-11.6194
▁красятся	-11.6194
онять	-11.6194
▁Неплохая	-11.6194
▁подкладочная	-11.6195
▁смайлики	-11.6195
▁читать	-11.6195
▁море	-11.6195
▁недочеты	-11.6195
▁экономить	-11.6195
▁excellent	-11.6196
▁случилось	-11.6196
▁фабричная	-11.6196
▁Кемеровск	-11.6196
▁fits	-11.6196
▁ясно	-11.6196
▁попой	-11.6196
▁пойдут	-11.6196
▁желтая	-11.6196
▁Отслеживалась	-11.6196
▁грубые	-11.6196
▁юбочку	-11.6197
▁Классное	-11.6197
▁Тут	-11.6197
▁стеклянная	-11.6197
▁выделяется	-11.6197
▁капри	-11.6197
▁прозрачной	-11.6197
▁смотрелась	-11.6198
шняя	-11.6198
▁зацепками	-11.6198
▁top	-11.6198
▁совести	-11.6198
▁каждую	-11.6199
▁резкий	-11.6199
▁постираю	-11.6199
▁подсказал	-11.6199
ie	-11.62
▁издалека	-11.62
▁реакции	-11.62
▁длинновато	-11.62
▁круче	-11.62
▁замечательные	-11.62
▁извещение	-11.62
▁розовое	-11.62
▁подобрал	-11.62
▁истекла	-11.62
▁Потрясающе	-11.6201
▁закрывать	-11.6201
▁указывать	-11.6201
▁хер	-11.6202
▁плоская	-11.6202
▁полных	-11.6202
▁тд	-11.6202
▁меньший	-11.6202
▁манжетах	-11.6203
▁ТОВАРА	-11.6203
▁девочкам	-11.6203
вался	-11.6203
▁Одела	-11.6203
▁Пахнет	-11.6203
▁Первая	-11.6203
▁ширпотреб	-11.6203
▁удивительно	-11.6203
▁Стирал	-11.6204
▁скинул	-11.6204
▁предназначен	-11.6205
▁воду	-11.6205
▁узнала	-11.6206
▁часы	-11.6206
▁потеет	-11.6206
▁Явно	-11.6207
▁широкими	-11.6208
▁месту	-11.6208
▁убого	-11.6208
▁отворот	-11.6209
▁фотки	-11.621
▁ушью	-11.6211
▁117	-11.6211
▁признал	-11.6211
▁Кошмар	-11.6211
▁коротенькая	-11.6211
▁клепки	-11.6211
▁понятная	-11.6212
▁богу	-11.6215
▁сняли	-11.6215
▁шерстью	-11.6217
▁летний	-11.6217
▁мини	-11.6218
▁широка	-11.6218
▁думали	-11.6219
▁длиньше	-11.6219
▁Смотрятся	-11.6219
▁гладится	-11.622
▁тысячи	-11.6222
лка	-11.6222
▁тесноват	-11.6225
▁возвращали	-11.6227
ho	-11.6227
▁причина	-11.6228
▁одет	-11.6228
▁Плюсы	-11.6229
▁Саратова	-11.623
енькие	-11.623
▁сходить	-11.623
▁стране	-11.6231
▁картинках	-11.6232
▁доходят	-11.6233
▁летней	-11.6234
▁напрасно	-11.6235
▁прикольное	-11.6235
▁наглость	-11.6238
безответственный	-11.6239
▁целые	-11.624
▁ушло	-11.6242
▁мнению	-11.6245
▁Разрез	-11.6247
▁отлетела	-11.6248
▁доставляли	-11.6249
▁bit	-11.6249
▁натянуто	-11.625
▁соотношение	-11.625
▁130	-11.6253
▁неожиданно	-11.6254
▁выполняет	-11.6254
▁глупо	-11.6258
▁горб	-11.6258
▁клиентам	-11.626
▁жены	-11.6263
тягивать	-11.6264
▁лекала	-11.6266
▁составу	-11.6268
дали	-11.627
▁спадает	-11.6273
стрел	-11.6274
однозначно	-11.6274
▁предоставил	-11.6276
▁имя	-11.6283
▁дешевого	-11.6285
▁торгов	-11.6286
▁балла	-11.6289
▁приятным	-11.6293
▁отправлялся	-11.6296
▁споров	-11.6298
▁почитала	-11.6299
▁Пар	-11.6299
лял	-11.63
▁объёму	-11.6308
▁послушала	-11.6308
ужасно	-11.631
0%	-11.6313
▁очен	-11.6316
▁завышен	-11.6316
▁толстым	-11.6319
▁ходу	-11.6331
▁связан	-11.6333
ЕТСЯ	-11.6341
▁разорван	-11.6342
▁надевала	-11.6342
14	-11.635
▁забыла	-11.6351
ОНА	-11.6368
ent	-11.6374
▁Итак	-11.6378
носила	-11.6383
.46	-11.6383
▁швея	-11.6384
▁Какая	-11.6387
шек	-11.639
▁ПРО	-11.6396
льн	-11.6397
▁влезли	-11.6397
▁среднем	-11.6398
ic	-11.6407
64	-11.6407
уши	-11.6407
▁аналогичны	-11.6416
▁жаркое	-11.6419
дели	-11.6421
▁представляет	-11.6421
2017	-11.6426
▁выбирал	-11.6429
▁носят	-11.6431
▁адреса	-11.6436
▁Пижамк	-11.6436
▁летуч	-11.6447
▁расстроенна	-11.6452
▁некуда	-11.6466
▁колени	-11.6476
меня	-11.6478
!!!!!!!!!!!	-11.6478
▁4-5	-11.6487
▁ÐoÐ	-11.6488
ЗА	-11.6506
▁k	-11.6513
▁общи	-11.6523
точно	-11.6528
▁чашечка	-11.6546
▁ожиданиям	-11.6548
отправлял	-11.6552
▁неприятные	-11.6553
сила	-11.6556
▁сшитая	-11.6562
▁эластично	-11.6564
▁совета	-11.6569
оставила	-11.6584
овалась	-11.6593
дак	-11.6596
▁запаса	-11.6598
▁1-	-11.6599
▁увиде	-11.66
43	-11.6607
тый	-11.6643
ИХ	-11.6644
▁вложен	-11.6648
▁мешковат	-11.6654
▁co	-11.6654
▁повседневно	-11.6655
ешу	-11.6661
нной	-11.6678
▁заменил	-11.6686
▁решен	-11.6686
оставлять	-11.6687
СЛИ	-11.6687
крыть	-11.6691
▁разный	-11.6699
▁сдела	-11.6705
ставили	-11.6718
аще	-11.6722
▁мест	-11.6744
▁поврежден	-11.675
▁посоветовала	-11.6754
инка	-11.6757
ника	-11.6768
ебе	-11.6769
▁сшитые	-11.6778
▁((((((	-11.6783
▁красит	-11.6784
приятное	-11.6796
▁вешал	-11.6799
▁fi	-11.681
▁обычном	-11.6818
шку	-11.6828
рах	-11.6834
▁скину	-11.6838
евая	-11.6844
смотр	-11.6846
авно	-11.6849
лезла	-11.6851
ЕТ	-11.6859
енно	-11.6864
▁сбор	-11.6864
▁силикон	-11.6867
▁повтор	-11.6869
авлением	-11.6871
▁норме	-11.6871
▁пушист	-11.6876
▁!!!!!!	-11.6876
▁Дешёв	-11.6886
▁цветы	-11.6886
вязан	-11.6892
тко	-11.6894
55	-11.69
▁распорот	-11.6904
▁отзыва	-11.6906
▁бл	-11.6907
ig	-11.6918
▁бел	-11.6918
полнитель	-11.6925
динственный	-11.6926
▁ваше	-11.6927
▁приклеен	-11.6929
ex	-11.6932
знутри	-11.6932
▁поддержива	-11.6933
▁материалом	-11.6944
дите	-11.6949
st	-11.6953
уча	-11.6956
дошла	-11.6957
СЬ	-11.696
ear	-11.6963
▁фигур	-11.6967
итель	-11.6969
▁прорез	-11.697
▁показал	-11.6976
▁+5	-11.6979
▁переход	-11.6985
ыброшенные	-11.6987
▁глад	-11.699
/10	-11.7008
▁мат	-11.701
вобщем	-11.701
▁передни	-11.701
посмотрим	-11.7012
бежевый	-11.7012
Можно	-11.7012
отправка	-11.7012
Торча	-11.7012
кроме	-11.7012
резинку	-11.7012
Быстрая	-11.7012
шорты	-11.7012
фасон	-11.7012
Единственное	-11.7012
кофточка	-11.7012
минус	-11.7012
постоянно	-11.7013
русский	-11.7015
отслеживался	-11.7015
Был	-11.7015
точнее	-11.7016
обман	-11.7016
Упаковано	-11.7016
нова	-11.7016
самый	-11.7019
придётся	-11.7021
коричневый	-11.7021
▁40-	-11.7024
никогда	-11.7025
Больше	-11.7025
▁думал	-11.7025
▁РАЗ	-11.7026
▁благодар	-11.7027
чнушка	-11.703
сейчас	-11.7036
вязалась	-11.7038
▁влез	-11.7039
▁узки	-11.704
▁пах	-11.7043
▁детски	-11.7044
▁рекомендовал	-11.705
около	-11.7052
разочарова	-11.7053
края	-11.7057
усе	-11.7057
лезают	-11.7057
пил	-11.7058
▁79	-11.7061
▁застрял	-11.7061
▁;	-11.7063
линял	-11.7063
▁плотным	-11.7071
коричнево	-11.7073
▁Жен	-11.7075
▁28.08	-11.7077
естами	-11.7078
▁бантик	-11.708
рала	-11.708
▁своё	-11.7084
бхват	-11.7085
▁Шикарны	-11.7085
▁колгот	-11.7087
давать	-11.7087
▁бусин	-11.7088
▁истори	-11.7089
▁начну	-11.7091
▁блоге	-11.7092
▁плотность	-11.7093
божаю	-11.7094
▁сиренев	-11.7097
▁скидка	-11.7097
▁обещания	-11.7098
▁сделаю	-11.7098
▁track	-11.7099
▁горчично	-11.7099
▁open	-11.7099
▁разочар	-11.71
левые	-11.71
УЖЕ	-11.71
▁buy	-11.71
▁глажк	-11.71
▁закатать	-11.71
▁обратить	-11.71
▁плотненько	-11.71
▁преврати	-11.71
▁терпение	-11.71
▁утеплителя	-11.71
▁хромает	-11.71
▁шнурка	-11.71
fact	-11.71
Замечательные	-11.71
ЭКСПРЕСС	-11.71
тянешь	-11.71
▁56-58	-11.71
▁delivered	-11.71
▁iTao	-11.71
▁Большие	-11.71
▁Замечательный	-11.71
▁Прикольная	-11.71
▁Ребята	-11.71
▁СОВСЕМ	-11.71
▁ХМАО	-11.71
▁висеть	-11.71
▁выпирает	-11.71
▁гармошку	-11.71
▁грязи	-11.71
▁дальнейше	-11.71
▁двойной	-11.71
▁доплатить	-11.71
▁жёсткий	-11.71
▁запястья	-11.71
▁карликов	-11.71
▁кончилась	-11.71
▁мастерскую	-11.71
▁молочного	-11.71
▁отправлю	-11.71
▁повезёт	-11.71
▁подмышкой	-11.71
▁покупателем	-11.71
▁проиграла	-11.71
▁пряжа	-11.71
▁пятнышки	-11.71
▁расползаться	-11.71
▁ребёнок	-11.71
▁регион	-11.71
▁сковывает	-11.71
▁сталкиваюсь	-11.71
▁терпимо	-11.71
▁тренч	-11.71
▁тютелька	-11.71
▁хвалят	-11.71
▁warm	-11.71
▁акции	-11.71
▁вонючий	-11.71
▁врезаются	-11.71
▁принимал	-11.71
▁рождения	-11.71
▁фиолетовые	-11.71
▁15-20	-11.71
▁correspond	-11.71
▁Сообщения	-11.71
▁греет	-11.71
▁Разниц	-11.71
▁карлика	-11.71
▁лапшу	-11.71
▁обещание	-11.71
▁голубую	-11.71
▁горох	-11.71
▁попробовать	-11.71
▁придраться	-11.71
▁заезды	-11.71
▁сбился	-11.71
▁серии	-11.71
▁положено	-11.71
▁совершено	-11.71
▁Подошёл	-11.71
▁оригинально	-11.71
▁посадке	-11.71
▁просят	-11.71
▁wrong	-11.71
▁находятся	-11.71
▁сядут	-11.71
▁фигню	-11.71
▁отвечают	-11.71
▁китае	-11.7101
▁распустился	-11.7101
▁принципиально	-11.7101
▁Получается	-11.7101
▁малейше	-11.7101
▁худеньким	-11.7101
▁ошибке	-11.7101
▁использования	-11.7101
▁любителя	-11.7101
▁собой	-11.7101
▁обострения	-11.7101
▁вонючая	-11.7101
▁укорачивать	-11.7101
▁тяжелый	-11.7101
▁представляла	-11.7101
▁ремешок	-11.7101
▁чём	-11.7101
▁ворсинки	-11.7101
▁светлые	-11.7101
▁понимала	-11.7101
▁учитывать	-11.7101
▁правильная	-11.7101
▁фотографий	-11.7101
▁бракованные	-11.7101
▁искуственный	-11.7101
▁Отправлен	-11.7101
▁90-70-90	-11.7102
▁неделе	-11.7102
▁отпишусь	-11.7102
▁бирку	-11.7102
▁порвался	-11.7102
▁полувер	-11.7102
▁рваные	-11.7102
▁Шортики	-11.7102
▁куклу	-11.7102
▁сентябре	-11.7102
▁комфортный	-11.7102
▁Понравились	-11.7103
▁образуются	-11.7103
▁выдержит	-11.7103
▁отстегивается	-11.7103
most	-11.7103
▁блестящий	-11.7103
▁красоты	-11.7103
▁колятся	-11.7103
▁вылазит	-11.7103
кройте	-11.7103
▁обработать	-11.7103
▁Рада	-11.7103
▁обманывать	-11.7104
▁противный	-11.7104
▁одевается	-11.7104
▁окажется	-11.7104
▁присылают	-11.7104
▁пожалели	-11.7104
▁same	-11.7104
▁обтянуло	-11.7104
▁бретели	-11.7105
▁высылает	-11.7105
▁тютельку	-11.7105
▁фабричный	-11.7105
▁согласились	-11.7105
▁облипочку	-11.7105
▁СИНТЕТИКА	-11.7105
▁мужской	-11.7105
▁аккуратнее	-11.7106
▁ремнем	-11.7106
▁наклеен	-11.7106
▁Друго	-11.7106
▁Ощущение	-11.7106
▁хлипкие	-11.7106
▁горла	-11.7107
▁прочные	-11.7107
▁моделей	-11.7107
▁штанами	-11.7107
▁удивило	-11.7107
▁картон	-11.7108
▁изъянов	-11.7108
▁оверлоком	-11.7108
▁соплях	-11.7108
▁розыск	-11.7108
▁круж	-11.7108
▁прошивать	-11.7109
▁Самару	-11.7109
▁нижний	-11.7109
▁подворот	-11.711
▁нг	-11.7111
▁плане	-11.7111
▁рассчитаны	-11.7112
▁лень	-11.7112
▁подходило	-11.7112
▁скрипучая	-11.7112
▁почувствовала	-11.7112
▁отрезала	-11.7113
▁заказанные	-11.7113
▁денежки	-11.7114
▁дрянь	-11.7114
▁закатается	-11.7114
▁персиковый	-11.7114
▁присылает	-11.7114
▁солнце	-11.7114
▁успехов	-11.7114
▁бизнесе	-11.7114
▁Привез	-11.7114
▁УЖАСНЫЙ	-11.7114
▁Оценк	-11.7114
▁испортили	-11.7115
▁:3	-11.7116
▁-15	-11.7116
▁смог	-11.7116
▁Просвечивается	-11.7117
-108	-11.7117
▁Томска	-11.7117
▁красота	-11.7117
▁смущает	-11.7118
▁темных	-11.7118
▁гром	-11.7119
▁рассчитано	-11.712
▁распределен	-11.7122
▁Отзыв	-11.7122
▁ТОЛЬКО	-11.7123
▁отмену	-11.7123
▁передать	-11.7124
▁расширение	-11.7125
▁спортом	-11.7125
▁закрою	-11.7126
▁туговата	-11.7126
▁Россия	-11.7127
▁уточнила	-11.7127
воз	-11.7127
▁бюстик	-11.713
▁влюбилась	-11.7131
▁соответствующий	-11.7131
▁пустой	-11.7133
▁Дома	-11.7134
▁ДВ	-11.7134
▁ИЗ	-11.7135
▁розовом	-11.7137
▁сидели	-11.714
▁минуты	-11.714
▁оправдали	-11.7141
▁вечно	-11.7141
▁сиреневый	-11.7144
▁пижаме	-11.7145
▁Норм	-11.7146
▁фотографиями	-11.7148
▁Данн	-11.7148
▁Калининграда	-11.7149
▁кости	-11.7149
▁является	-11.7149
▁другу	-11.7151
▁застряла	-11.7151
▁рекомендовала	-11.7151
▁beca	-11.7153
▁Име	-11.7153
▁вырост	-11.7154
этот	-11.7156
▁сообщили	-11.7157
▁Москва	-11.7158
тяжка	-11.7161
▁убеждал	-11.7163
▁тепла	-11.7165
▁посмотрите	-11.7166
тоит	-11.7168
▁изображение	-11.7168
▁5%	-11.7169
▁закрылся	-11.7176
▁видели	-11.7179
▁вставить	-11.718
▁жилета	-11.7182
▁кружеве	-11.7182
▁огромными	-11.7182
▁Фу	-11.7183
▁замер	-11.7183
▁вставлять	-11.7185
▁влезут	-11.7189
▁пережил	-11.7191
▁мин	-11.7193
такая	-11.7196
▁висела	-11.7197
▁надевается	-11.7198
▁3+	-11.72
)))))))	-11.7207
▁подругам	-11.7208
-72	-11.7209
▁сообщила	-11.7211
any	-11.7212
▁сей	-11.722
▁напоминающ	-11.7225
вец	-11.7226
▁лекало	-11.7227
Сама	-11.724
▁неоднократно	-11.7242
AS	-11.7243
маловат	-11.7244
▁мошенники	-11.7246
▁отправляла	-11.7249
▁полным	-11.725
▁саму	-11.7254
елей	-11.7255
ляп	-11.7257
▁застиран	-11.7257
▁необходимо	-11.7258
шему	-11.7261
▁обще	-11.7266
▁лес	-11.7267
▁любите	-11.7273
▁сломанн	-11.7275
▁неудобная	-11.7276
▁носится	-11.7279
ползет	-11.7279
▁слонов	-11.7281
▁дет	-11.7282
левая	-11.7288
▁ОО	-11.7289
▁похожие	-11.7294
▁получено	-11.73
▁некрасивые	-11.7306
▁платила	-11.7308
▁подоле	-11.7311
▁маленьком	-11.7315
▁натягивать	-11.7319
плохого	-11.7332
▁объему	-11.7334
▁Вернула	-11.7341
ельный	-11.7344
▁растянуть	-11.7345
эк	-11.7348
▁использован	-11.7349
▁всяк	-11.7359
▁ткан	-11.7384
▁отрезан	-11.7389
ернуть	-11.7399
▁Странн	-11.7401
ОК	-11.7403
▁бесит	-11.7414
▁будь	-11.7426
-76	-11.743
▁РУКАВА	-11.7431
▁Та	-11.7434
роз	-11.7441
прошито	-11.7443
одни	-11.745
▁проду	-11.7453
▁полиэстера	-11.7464
ставляет	-11.7478
▁отпечата	-11.7478
▁ЭТИ	-11.748
▁БЫЛ	-11.7483
▁приходил	-11.7502
rst	-11.7518
ление	-11.7523
девать	-11.7526
тянулась	-11.7532
▁кап	-11.7544
сталось	-11.7555
36	-11.7558
▁Калининград	-11.7559
ther	-11.7571
Кр	-11.7574
шие	-11.7583
▁заказам	-11.7605
▁:))	-11.7606
нит	-11.7624
нием	-11.7628
▁тонки	-11.763
▁числ	-11.763
▁спорта	-11.7642
▁размыт	-11.7642
▁верху	-11.7646
дарил	-11.7656
other	-11.7679
▁-1	-11.7687
казывают	-11.769
тянуть	-11.7698
плохие	-11.7699
ровные	-11.7703
ерый	-11.7707
-102	-11.771
куда	-11.7711
▁самому	-11.7719
▁ля	-11.7722
.01.18	-11.7723
общ	-11.7754
ka	-11.7755
зон	-11.7757
▁кле	-11.7759
▁представленно	-11.7785
слал	-11.7786
▁причин	-11.7789
▁выдержа	-11.7789
▁Отправля	-11.7802
вели	-11.7812
▁we	-11.7815
шни	-11.7816
▁Плох	-11.7817
чили	-11.7818
32	-11.7818
▁фл	-11.7849
▁пожале	-11.7866
вает	-11.7869
Во	-11.787
▁поменяла	-11.7874
ждать	-11.7877
▁уверен	-11.7878
▁достала	-11.7885
▁выветр	-11.7888
▁случа	-11.7901
▁Прочита	-11.7904
▁собира	-11.7906
торая	-11.7912
волн	-11.7912
ставил	-11.7913
шей	-11.7917
шая	-11.792
▁груд	-11.7931
▁подтверж	-11.7931
меша	-11.7931
▁Получил	-11.7932
▁зимне	-11.7941
▁Ру	-11.7945
xL	-11.7952
ывали	-11.7957
▁кошмарно	-11.7966
падают	-11.7969
ааа	-11.7972
▁лент	-11.7972
▁тока	-11.7976
чина	-11.7976
▁курьера	-11.7976
▁привел	-11.798
▁ушив	-11.7991
криво	-11.7991
валось	-11.7992
ложены	-11.7993
▁приятн	-11.7994
долг	-11.7999
▁ходит	-11.7999
vi	-11.7999
▁очередно	-11.8004
оказалась	-11.8004
▁видел	-11.8005
▁Кружев	-11.8009
▁принцип	-11.801
116	-11.801
кладки	-11.8011
красный	-11.8011
Правда	-11.8012
защита	-11.8012
Покупк	-11.8012
Мало	-11.8012
легко	-11.8012
хочу	-11.8012
покупкой	-11.8012
пальто	-11.8012
Смотрится	-11.8012
нормально	-11.8012
Мои	-11.8012
даёт	-11.8012
XS	-11.8012
Мех	-11.8013
плотный	-11.8013
срок	-11.8013
заказывайте	-11.8014
решила	-11.8015
пишите	-11.8016
денег	-11.802
пошита	-11.802
ужасная	-11.8021
115	-11.8022
тоимость	-11.8037
▁делал	-11.8039
▁запакован	-11.8046
▁натурально	-11.8049
▁знал	-11.8054
▁толщин	-11.8057
счет	-11.8057
▁Наверно	-11.8061
ужасное	-11.8063
▁порядк	-11.8064
▁доста	-11.8065
эти	-11.8065
▁сине	-11.8069
▁упаковал	-11.8072
▁распаковк	-11.8072
▁отвали	-11.8073
акет	-11.8074
▁оплат	-11.8076
▁Алиэкспрес	-11.8081
45	-11.8082
▁впечатлил	-11.8088
▁третье	-11.8092
112	-11.8093
▁бонус	-11.8093
▁колхоз	-11.8094
▁Карман	-11.8094
▁15.11	-11.8095
▁рискну	-11.8095
▁прекрасны	-11.8096
▁upset	-11.8096
▁Подклад	-11.8097
режде	-11.8097
000	-11.8097
▁огорч	-11.8099
НАЯ	-11.8099
алимая	-11.8099
▁ВОЗВРА	-11.8099
рактически	-11.8099
▁изготовлен	-11.81
▁эластан	-11.81
▁ДРУГ	-11.81
hina	-11.81
que	-11.81
▁Реал	-11.81
▁спец	-11.81
▁7/8	-11.81
▁again	-11.81
▁expected	-11.81
▁height	-11.81
▁high	-11.81
▁length	-11.81
▁skirt	-11.81
▁Астрахани	-11.81
▁Китаю	-11.81
▁Крутая	-11.81
▁Латвии	-11.81
▁Прекрасный	-11.81
▁Сургут	-11.81
▁Хлопка	-11.81
▁бдительны	-11.81
▁безобразие	-11.81
▁веревки	-11.81
▁влитые	-11.81
▁водолазке	-11.81
▁земля	-11.81
▁маркировки	-11.81
▁маркировкой	-11.81
▁мгновенно	-11.81
▁невысоких	-11.81
▁неровная	-11.81
▁плесенью	-11.81
▁подробны	-11.81
▁помощи	-11.81
▁приблизительно	-11.81
▁приложении	-11.81
▁приобретать	-11.81
▁продовцу	-11.81
▁пузырем	-11.81
▁разачарована	-11.81
▁расчитан	-11.81
▁реальные	-11.81
▁ремнём	-11.81
▁ровненькие	-11.81
▁розовых	-11.81
▁сильнее	-11.81
▁симпотичная	-11.81
▁скатываться	-11.81
▁смахивает	-11.81
▁сошлось	-11.81
▁степени	-11.81
▁столкнулась	-11.81
▁трещат	-11.81
▁фитнес	-11.81
-99	-11.81
надежно	-11.81
▁Брянск	-11.81
▁Перми	-11.81
▁Получив	-11.81
▁желательно	-11.81
▁жесткий	-11.81
▁заметить	-11.81
▁заслуживает	-11.81
▁изделию	-11.81
▁лишний	-11.81
▁локоть	-11.81
▁мотня	-11.81
▁одобрен	-11.81
▁полутора	-11.81
▁предмет	-11.81
▁рубашек	-11.81
▁смутило	-11.81
▁Продлевал	-11.81
▁влитой	-11.81
▁мятный	-11.81
▁утерян	-11.81
МОЖНО	-11.81
▁влитое	-11.81
▁дождусь	-11.81
▁порвется	-11.81
▁Липн	-11.81
▁ночнушку	-11.81
▁Этикетк	-11.81
▁ХОРОШЕЕ	-11.81
▁деревне	-11.81
▁кажутся	-11.81
▁странице	-11.81
▁китайцев	-11.81
▁пыли	-11.81
▁футболкой	-11.81
▁рубаха	-11.81
▁сентябрь	-11.81
▁липкая	-11.81
▁неприятным	-11.81
▁кармашки	-11.81
▁аллергия	-11.81
▁гармошкой	-11.81
купой	-11.8101
▁Тверск	-11.8101
▁изменится	-11.8101
▁чешется	-11.8101
▁оторвать	-11.8101
▁функцию	-11.8101
▁китайская	-11.8101
▁ростовка	-11.8101
▁гигантский	-11.8101
▁пупа	-11.8101
▁испытала	-11.8101
▁никого	-11.8101
▁think	-11.8101
▁Мега	-11.8101
▁Главное	-11.8101
▁посадки	-11.8101
РЕЗ	-11.8101
▁блузкой	-11.8101
▁худшего	-11.8101
▁бракованным	-11.8101
▁бракованное	-11.8101
▁свободную	-11.8101
▁ажур	-11.8101
▁следует	-11.8101
▁купите	-11.8101
▁дырявые	-11.8101
▁пут	-11.8101
▁ребенком	-11.8101
▁tracked	-11.8101
▁поднимать	-11.8101
▁стади	-11.8101
▁ТРИ	-11.8101
▁налезает	-11.8101
▁заканчивалась	-11.8101
▁смотрю	-11.8101
▁собирался	-11.8102
▁терпеливо	-11.8102
▁жёлтые	-11.8102
▁представляю	-11.8102
▁Брать	-11.8102
▁спортивно	-11.8102
▁клиентов	-11.8102
▁север	-11.8102
▁коричневые	-11.8102
▁Доставку	-11.8102
▁ask	-11.8102
пупер	-11.8102
▁игнорит	-11.8102
▁мягенькая	-11.8102
▁косые	-11.8103
▁жди	-11.8103
▁отстёгивается	-11.8103
▁65%	-11.8103
▁Подошел	-11.8103
▁застегнут	-11.8103
▁описать	-11.8103
▁lot	-11.8103
▁дешёвые	-11.8103
▁указать	-11.8103
▁отсутствуют	-11.8103
▁разводах	-11.8103
▁извещения	-11.8103
▁надежный	-11.8103
▁отслеживаемый	-11.8103
▁нажала	-11.8104
▁отверстия	-11.8104
▁начёсом	-11.8104
▁продаван	-11.8104
▁простые	-11.8105
▁синтетическое	-11.8105
▁топорщиться	-11.8105
▁требую	-11.8105
▁удлиненная	-11.8106
▁присудил	-11.8106
▁рукам	-11.8106
▁synthetic	-11.8106
▁жёсткая	-11.8106
▁x	-11.8106
▁огорчает	-11.8106
ставьте	-11.8106
▁требовать	-11.8107
▁Шнуро	-11.8107
▁договориться	-11.8107
▁считать	-11.8108
▁подтянуть	-11.8108
▁кофе	-11.8108
▁изнанка	-11.8109
▁регистраци	-11.8109
▁квадратная	-11.8109
▁Печально	-11.8109
▁Оставила	-11.811
▁успело	-11.811
добросовестный	-11.811
огда	-11.811
▁отлетают	-11.811
▁окружность	-11.8111
▁страны	-11.8111
▁дешёвка	-11.8111
▁вышиты	-11.8111
ello	-11.8112
▁деньгами	-11.8112
▁утепленная	-11.8112
▁левом	-11.8113
▁отменял	-11.8113
▁смотришь	-11.8113
▁хлорки	-11.8114
▁страз	-11.8114
▁плоской	-11.8115
▁переписке	-11.8115
▁верна	-11.8115
▁электролизуется	-11.8115
▁right	-11.8115
▁растянулись	-11.8116
Круто	-11.8116
▁негативный	-11.8117
▁стиле	-11.8119
▁суперские	-11.8119
▁чудесный	-11.8119
▁Парка	-11.8119
▁утягивают	-11.812
▁плохим	-11.812
▁идеальный	-11.8122
▁машинно	-11.8122
▁лежат	-11.8122
▁натягива	-11.8123
▁потерялись	-11.8123
веден	-11.8123
▁отвратительные	-11.8124
▁выписывала	-11.8125
▁приобрела	-11.8125
▁надоело	-11.8125
▁покупали	-11.8125
▁грустно	-11.8126
▁добавок	-11.8127
▁контактный	-11.8127
▁разговор	-11.8128
▁китайском	-11.8129
▁распаковки	-11.8129
▁упаковали	-11.8129
▁Какие	-11.8131
▁джинсовая	-11.8131
▁прорези	-11.8131
▁мятое	-11.8132
▁продам	-11.8132
▁объяснения	-11.8132
▁связывалась	-11.8132
▁Внутренни	-11.8132
▁складках	-11.8133
▁велюр	-11.8134
▁дорогая	-11.8135
▁вскрыта	-11.8135
▁толстой	-11.8136
ствует	-11.8136
▁крупные	-11.8137
▁лицо	-11.8138
▁согласна	-11.8138
▁:/	-11.814
▁Владивостока	-11.8141
▁Хабаровска	-11.8141
▁указывал	-11.8143
▁доехали	-11.8144
▁огорчили	-11.8145
▁Мама	-11.8146
торо	-11.8146
▁вводит	-11.8146
▁середина	-11.8146
▁отклонили	-11.8147
▁синей	-11.8147
▁sizes	-11.8148
▁делали	-11.8149
пов	-11.8149
▁проверил	-11.815
оставляют	-11.8151
▁помогал	-11.8152
▁серой	-11.8154
одходит	-11.8155
▁Жутко	-11.8157
▁обманывал	-11.8157
там	-11.8159
▁красное	-11.816
▁вчера	-11.8161
▁объема	-11.8161
▁каждом	-11.8161
-63	-11.8162
▁ехал	-11.8163
резаны	-11.8165
▁дождя	-11.8165
▁кремов	-11.8166
▁синее	-11.8167
вернее	-11.8168
бирается	-11.8168
▁привета	-11.8168
▁приехало	-11.8169
Закаж	-11.817
▁команда	-11.8171
▁превзошл	-11.8171
▁точный	-11.8173
▁джинсу	-11.8173
▁бирюзов	-11.8174
▁теплым	-11.8174
▁пухом	-11.8175
▁возмеща	-11.8177
▁огорчила	-11.8177
▁отменили	-11.8179
▁доехала	-11.8179
▁мужа	-11.818
:((	-11.8181
-66	-11.8182
дя	-11.8182
▁трекер	-11.8183
▁убирать	-11.8185
▁некачественные	-11.8188
▁варианты	-11.8189
▁взамен	-11.8189
▁поставлю	-11.8189
▁-20	-11.8192
ate	-11.8193
▁отпуска	-11.8194
▁мокро	-11.8198
▁особенного	-11.8199
▁(2	-11.8203
▁them	-11.8203
▁бёдрам	-11.8206
▁вернулась	-11.8206
▁вау	-11.8209
▁требовал	-11.8212
писали	-11.8223
вернула	-11.8223
▁неудобный	-11.8224
▁перешив	-11.8232
▁настроен	-11.8244
▁холода	-11.8244
▁пообещали	-11.8245
такой	-11.8247
▁икр	-11.8248
▁дер	-11.825
▁пережива	-11.8256
▁знаете	-11.8261
▁показывал	-11.8269
▁dis	-11.8269
▁результата	-11.8272
перезакажу	-11.828
▁потерял	-11.8283
▁ХОТ	-11.8285
▁ро	-11.8287
Она	-11.8288
▁разное	-11.8302
ЕЙ	-11.8303
ейшая	-11.8304
▁Белы	-11.8305
▁прикреплен	-11.8311
ставщик	-11.8313
зле	-11.832
▁ожидает	-11.8323
▁пропорционально	-11.8326
X	-11.8333
чери	-11.8336
74	-11.8338
▁33	-11.835
ВАТЬ	-11.836
▁клад	-11.837
▁потерять	-11.8373
дыр	-11.8375
брак	-11.838
▁резина	-11.8383
▁праздника	-11.8386
поп	-11.8392
тянула	-11.8395
▁вести	-11.8395
▁дики	-11.8402
▁сгиба	-11.8403
бла	-11.8405
▁ряда	-11.8418
лева	-11.8421
сп	-11.8424
ехать	-11.8424
▁post	-11.8445
▁которым	-11.8451
▁тему	-11.8451
полнить	-11.8465
▁яркое	-11.8471
АЛ	-11.8473
▁холодное	-11.8479
▁любо	-11.8481
▁ЧЕ	-11.8484
шью	-11.8486
...(((	-11.8507
размера	-11.851
▁крыта	-11.8515
▁подходил	-11.8524
27	-11.8526
▁част	-11.8536
ция	-11.854
.07.2017	-11.8543
ЛЕ	-11.8543
▁ОТЛИЧНО	-11.8545
▁экономи	-11.8551
▁обычн	-11.8555
ления	-11.8557
▁относи	-11.8559
▁брал	-11.8561
▁зале	-11.8571
рек	-11.8572
▁ваши	-11.8574
АМИ	-11.8576
▁выбранно	-11.8579
велик	-11.8584
(1	-11.8585
▁Ставропольск	-11.8597
▁Обрати	-11.8603
▁дурацк	-11.8606
ящая	-11.8609
▁повседневн	-11.8616
лился	-11.862
▁застегива	-11.8624
▁магнит	-11.8625
▁мелким	-11.8631
бывают	-11.8633
чень	-11.8653
бол	-11.8656
▁видит	-11.8663
▁оценил	-11.8668
▁подгиба	-11.8674
▁небыло	-11.8679
▁))))	-11.8692
▁проверяла	-11.8704
торую	-11.8708
▁утеплен	-11.8708
ОШ	-11.8715
▁слома	-11.872
▁облегающ	-11.8739
▁заплати	-11.8747
пад	-11.8759
▁прямое	-11.8763
овым	-11.877
честв	-11.8772
▁1200	-11.8783
оль	-11.8791
▁нормальны	-11.8797
▁шикарн	-11.8801
девала	-11.8807
ирочки	-11.8828
нц	-11.8833
▁выражен	-11.8835
вому	-11.8845
▁возвраща	-11.8855
уля	-11.8856
▁праздник	-11.8856
▁Саратов	-11.8857
ine	-11.8864
▁шёлк	-11.8873
▁Футбол	-11.8874
▁приятной	-11.8874
ерс	-11.8879
ite	-11.8887
▁шо	-11.8889
БА	-11.889
УХ	-11.8893
▁пристрочен	-11.8895
носил	-11.8896
ИЙ	-11.8902
сшит	-11.8904
мат	-11.8911
▁'	-11.8915
▁нежел	-11.8915
▁топор	-11.892
!!!)))	-11.8921
"...	-11.8924
▁отзыве	-11.8935
▁идеальны	-11.898
4.09	-11.899
ЧЕМ	-11.9008
▁кач	-11.9013
ичный	-11.9014
ьная	-11.9015
nt	-11.9028
▁закрывают	-11.903
▁Deliver	-11.9031
овать	-11.9033
▁отпад	-11.9035
обещал	-11.9045
▁Прибыл	-11.9052
▁приш	-11.9054
▁полага	-11.9061
▁оторван	-11.9065
▁107	-11.907
месяц	-11.9074
▁свободное	-11.9078
▁лег	-11.9079
-78	-11.9081
еликолепная	-11.9083
▁спущенн	-11.9085
▁отслеж	-11.9085
анная	-11.9091
▁нужной	-11.9095
доставили	-11.9096
il	-11.9106
▁ВАМ	-11.9108
лн	-11.9111
▁смотрел	-11.9114
могу	-11.9115
начало	-11.9115
ищите	-11.9118
мелочь	-11.9122
подождите	-11.9122
▁109	-11.9122
дочь	-11.9122
красная	-11.9122
кстати	-11.9123
сплошная	-11.9123
полиэстер	-11.9123
яркие	-11.9123
Разочарована	-11.9123
Фото	-11.9123
просвечивают	-11.9123
опять	-11.9123
параметры	-11.9123
белый	-11.9124
Когда	-11.9124
▁созда	-11.9124
более	-11.9124
Ждала	-11.9124
заказывали	-11.9125
▁уведомлени	-11.9125
беру	-11.9125
подкладка	-11.9126
▁блуз	-11.9127
Ношу	-11.9128
совершенно	-11.9129
▁распродаж	-11.9131
тогда	-11.9131
▁оплатил	-11.9133
крывает	-11.9135
▁шуб	-11.9137
велико	-11.9137
полностью	-11.9141
какие	-11.9145
-106	-11.9145
спустя	-11.9146
▁подкачал	-11.9147
▁Жутк	-11.9147
витшот	-11.9147
▁чита	-11.9148
▁крупны	-11.915
100%	-11.915
▁широк	-11.9151
▁возраст	-11.9158
МИ	-11.9161
▁приемлемо	-11.917
▁фабрично	-11.9172
▁разы	-11.9179
▁прилип	-11.918
▁заняти	-11.9181
▁розовым	-11.9181
мело	-11.9182
▁остальным	-11.9182
▁синим	-11.9183
▁выглядел	-11.9184
говаривал	-11.9187
атегорически	-11.9189
▁Качеств	-11.9193
овсюду	-11.9193
▁потерян	-11.9194
▁девочка	-11.9195
▁лифа	-11.9197
▁третьи	-11.9197
▁стиль	-11.9199
▁узка	-11.92
▁Молни	-11.92
▁ужасны	-11.9202
▁московск	-11.9202
▁цифр	-11.9202
▁дешов	-11.9204
▁bo	-11.9205
стальное	-11.9206
▁декоративн	-11.9206
▁морщит	-11.9206
▁треугольн	-11.9206
▁взросл	-11.9207
▁синте	-11.9208
▁тонка	-11.9208
▁внутренн	-11.9208
▁20.12	-11.9209
▁заканчива	-11.9209
орвались	-11.9209
▁резиновы	-11.9209
▁suit	-11.9209
▁подароч	-11.921
▁Алтайск	-11.921
уловер	-11.921
▁Блест	-11.9211
ечать	-11.9211
осуществля	-11.9211
▁some	-11.9211
▁super	-11.9211
▁Крутые	-11.9211
▁влияет	-11.9211
▁находка	-11.9211
▁обошлась	-11.9211
▁парашют	-11.9211
▁полнейшая	-11.9211
▁прадовц	-11.9211
▁пуговка	-11.9211
▁разойдутся	-11.9211
▁разошлось	-11.9211
▁таможня	-11.9211
▁тренировок	-11.9211
▁фонтан	-11.9211
▁чувства	-11.9211
egabonus	-11.9211
uality	-11.9211
▁Seller	-11.9211
▁clear	-11.9211
▁polyester	-11.9211
▁price	-11.9211
▁shop	-11.9211
▁ВЕРНУТЬ	-11.9211
▁ДНЕЙ	-11.9211
▁ДОЛГО	-11.9211
▁Дизайн	-11.9211
▁Ладно	-11.9211
▁Меньше	-11.9211
▁Огромный	-11.9211
▁ПЛАТЬЕ	-11.9211
▁Подмосковье	-11.9211
▁Понравился	-11.9211
▁Потеряла	-11.9211
▁Прикольные	-11.9211
▁Резиночк	-11.9211
▁ТРЕК	-11.9211
▁Теплые	-11.9211
▁Тулы	-11.9211
▁Удобные	-11.9211
▁выброшены	-11.9211
▁вытащить	-11.9211
▁горловиной	-11.9211
▁жопу	-11.9211
▁жопы	-11.9211
▁жулик	-11.9211
▁картину	-11.9211
▁лямок	-11.9211
▁морской	-11.9211
▁навстречу	-11.9211
▁неохотно	-11.9211
▁отлеживался	-11.9211
▁отпороть	-11.9211
▁перезаказать	-11.9211
▁переплатить	-11.9211
▁побыстрее	-11.9211
▁повседневку	-11.9211
▁поднимаешь	-11.9211
▁посмотрев	-11.9211
▁предыдуще	-11.9211
▁продовцом	-11.9211
▁производства	-11.9211
▁соизволил	-11.9211
▁сообщений	-11.9211
▁состояние	-11.9211
▁суразно	-11.9211
▁труселя	-11.9211
▁туникой	-11.9211
▁удастся	-11.9211
▁условии	-11.9211
▁уступки	-11.9211
▁чесаться	-11.9211
▁штанцы	-11.9211
▁штучка	-11.9211
▁вновь	-11.9211
▁возрат	-11.9211
▁доверия	-11.9211
▁желании	-11.9211
▁измерения	-11.9211
▁переделку	-11.9211
▁спортивная	-11.9211
▁ЗАКАЗЫВАТЬ	-11.9211
▁ПОСЫЛК	-11.9211
▁САМО	-11.9211
▁возмущена	-11.9211
▁пройдёт	-11.9211
▁ручную	-11.9211
▁туалет	-11.9211
▁пройдет	-11.9211
▁спинки	-11.9211
▁ePacket	-11.9211
▁Яркая	-11.9211
▁дождавшись	-11.9211
▁надеяться	-11.9211
▁откликнулся	-11.9211
▁СМС	-11.9211
▁рвется	-11.9211
▁сиськи	-11.9211
▁вскрытии	-11.9211
▁спущены	-11.9211
▁ПРОДАВЦОМ	-11.9211
▁коричневого	-11.9211
▁Качественные	-11.9211
▁пиздец	-11.9211
▁нифига	-11.9211
▁продуман	-11.9211
▁извинялся	-11.9212
▁рисковать	-11.9212
▁задираются	-11.9212
▁Пуговица	-11.9212
▁пониже	-11.9212
▁сочетается	-11.9212
▁мудак	-11.9212
▁наружн	-11.9212
▁советовать	-11.9212
▁матовые	-11.9212
▁сутки	-11.9212
▁ползут	-11.9212
▁болотно	-11.9212
▁вручения	-11.9212
▁искрит	-11.9212
▁мужскую	-11.9212
▁колючее	-11.9212
▁оттопыривается	-11.9212
▁футболок	-11.9212
▁худенькие	-11.9212
▁заказываете	-11.9212
▁далека	-11.9212
▁крепится	-11.9212
▁лживый	-11.9212
▁5-7	-11.9212
▁повторюсь	-11.9212
▁строчек	-11.9212
▁убедилась	-11.9212
▁влезает	-11.9212
▁двигаться	-11.9212
▁ПРИШЛА	-11.9212
▁сырости	-11.9212
ЕРЬ	-11.9212
▁биркой	-11.9212
▁валяться	-11.9212
▁ляжка	-11.9212
▁пояснице	-11.9212
▁спасает	-11.9212
▁now	-11.9212
▁Нового	-11.9212
▁маечки	-11.9212
▁эластичный	-11.9212
▁марте	-11.9212
▁долгожданную	-11.9212
▁согнуть	-11.9212
▁упаковку	-11.9212
▁Далее	-11.9212
▁Ехал	-11.9212
▁Кожа	-11.9212
▁love	-11.9212
▁цело	-11.9212
▁ПОЛУЧИЛА	-11.9213
▁летним	-11.9213
плотную	-11.9213
▁шея	-11.9213
▁need	-11.9213
▁косит	-11.9213
▁Чашечк	-11.9213
▁вмешались	-11.9213
age	-11.9213
▁тканей	-11.9213
▁присвоен	-11.9213
▁пузырится	-11.9213
▁пересылки	-11.9213
▁питер	-11.9213
▁получаешь	-11.9214
▁достойная	-11.9214
▁происхождения	-11.9214
▁дышащая	-11.9214
▁мешает	-11.9214
▁Дырки	-11.9214
▁придумывать	-11.9214
▁речь	-11.9214
▁изнанку	-11.9214
▁лезть	-11.9214
▁Уфу	-11.9214
▁границы	-11.9214
▁Алтайский	-11.9214
▁сборку	-11.9214
▁болта	-11.9214
▁повторный	-11.9215
cond	-11.9215
▁лежать	-11.9215
▁программ	-11.9215
▁сожалею	-11.9215
▁состоит	-11.9215
▁Един	-11.9215
▁телесный	-11.9215
▁желтизной	-11.9215
▁удивилась	-11.9215
▁разводами	-11.9215
▁размытый	-11.9216
▁замечаний	-11.9216
▁прибытия	-11.9216
▁doesn	-11.9216
▁лишняя	-11.9216
▁открывайте	-11.9216
▁переписку	-11.9217
▁выгодно	-11.9217
▁вязаный	-11.9217
▁ЦВЕТА	-11.9218
▁Говорит	-11.9218
▁Фурнитура	-11.9218
▁бесполезная	-11.9218
▁следовало	-11.9218
▁крепкая	-11.9218
▁рекомендуем	-11.9218
▁дефектами	-11.9218
▁лосинки	-11.9218
▁комфортнее	-11.9218
▁КУРТКА	-11.9218
▁БУДУ	-11.9219
▁вязке	-11.9219
▁удаля	-11.9219
▁декоративные	-11.9219
▁пышный	-11.9219
▁поездк	-11.922
▁стрёмно	-11.922
▁блузы	-11.922
▁Позор	-11.9221
▁третьего	-11.9221
▁пятки	-11.9221
▁причины	-11.9222
▁блогера	-11.9222
▁сочный	-11.9223
▁Гор	-11.9223
▁перекошены	-11.9223
▁сломана	-11.9224
огу	-11.9224
▁зеленые	-11.9224
▁выглядело	-11.9224
▁домашнего	-11.9224
:-)	-11.9224
▁благодарность	-11.9224
▁толстовкой	-11.9224
▁отлипает	-11.9224
▁40%	-11.9225
▁врун	-11.9226
▁благодарна	-11.9226
▁понятия	-11.9226
ow	-11.9226
▁размерчик	-11.9227
▁аппликация	-11.9227
▁занижена	-11.9227
▁непонятными	-11.9227
▁быстра	-11.9228
▁Короткое	-11.9228
▁take	-11.9228
▁Безумно	-11.9228
▁Жалею	-11.9228
▁Мелочь	-11.9228
▁Уважаемый	-11.9228
▁бежевого	-11.9228
▁натяжку	-11.9228
▁сережки	-11.9228
▁Предложил	-11.9228
▁полторы	-11.9228
▁спортивные	-11.9228
▁Яркий	-11.9228
▁Фотк	-11.9229
▁пропустила	-11.9229
▁слабый	-11.9229
▁стройнит	-11.923
исто	-11.923
▁бомбическ	-11.923
▁удовлетворена	-11.9233
▁собаки	-11.9233
▁желтоватый	-11.9234
▁182	-11.9234
▁малиновый	-11.9234
▁цепляет	-11.9235
▁цен	-11.9235
▁лежало	-11.9235
аетки	-11.9235
▁открытка	-11.9235
▁кривовато	-11.9236
▁растянутый	-11.9236
-80-100	-11.9237
▁сеточка	-11.9237
▁вечером	-11.9238
▁липучка	-11.9238
▁поведёт	-11.9238
▁Вмест	-11.9238
▁тыс	-11.9239
▁перекручена	-11.9239
▁Служб	-11.9239
▁хз	-11.924
бить	-11.924
▁Отслеживание	-11.9241
▁2018	-11.9242
▁внутреннем	-11.9243
▁удивила	-11.9244
▁количеством	-11.9245
▁зависит	-11.9246
▁сером	-11.9246
▁простите	-11.9246
▁стирается	-11.9247
▁клеш	-11.9247
▁заниженн	-11.9247
▁фотке	-11.9248
▁видать	-11.9249
▁way	-11.9249
ЭТОМ	-11.925
▁возмущени	-11.925
▁подростку	-11.925
▁Ваш	-11.9251
▁возвратили	-11.9251
.08.2017	-11.9252
▁помогла	-11.9252
▁врезается	-11.9252
▁Заявлен	-11.9254
▁шнуровка	-11.9254
▁исключ	-11.9255
▁женщину	-11.9255
▁хвостик	-11.9255
▁Кривой	-11.9257
льше	-11.9258
понятного	-11.9259
▁зеленая	-11.9261
▁цепляются	-11.9261
▁девушках	-11.9264
▁продление	-11.9265
▁шитья	-11.9266
▁точная	-11.9269
▁пуга	-11.927
пли	-11.9273
зор	-11.9273
▁книзу	-11.9274
▁платит	-11.9275
▁поняли	-11.9276
▁приклеена	-11.9276
▁возместили	-11.9277
регулировать	-11.9277
▁продажи	-11.9278
▁странным	-11.9279
▁прочем	-11.9279
▁перекошена	-11.9281
▁сравнении	-11.9282
▁предоставила	-11.9282
▁понимаете	-11.9282
▁слева	-11.9283
▁супербыстрая	-11.9283
Ужасно	-11.9285
▁написанно	-11.9285
▁прокрашена	-11.9286
▁сестра	-11.9288
▁задумк	-11.9292
▁чудесно	-11.9294
▁расстояние	-11.9298
опис	-11.93
▁Просил	-11.93
▁повторя	-11.93
▁магазинов	-11.9301
200	-11.9305
считал	-11.9314
▁берут	-11.9314
▁распарывать	-11.9314
▁впи	-11.9315
▁подтвердили	-11.9318
▁русском	-11.9318
▁Ростова	-11.932
▁дают	-11.9321
▁плечей	-11.9321
▁Котор	-11.9322
▁обозначен	-11.9324
▁ярлыка	-11.9325
▁тянуть	-11.9325
лено	-11.9329
▁ос	-11.933
▁разном	-11.933
▁отношением	-11.933
▁начне	-11.9332
23	-11.9332
▁воротником	-11.9333
▁ошибоч	-11.9336
▁телефона	-11.9336
▁Нежн	-11.9337
▁заказчик	-11.934
▁зацепить	-11.934
▁След	-11.9341
▁стильное	-11.9344
▁пошёл	-11.9347
▁боль	-11.9351
▁обычного	-11.9359
ижу	-11.9365
низила	-11.9366
by	-11.9368
▁shirt	-11.9372
▁поддержал	-11.9373
▁ярлычк	-11.9375
Подарок	-11.9376
▁чуло	-11.9376
можете	-11.9377
▁дн	-11.9378
▁Пуст	-11.9383
▁дойдет	-11.9385
▁несоответствия	-11.9387
ведут	-11.9393
▁достоинства	-11.9402
ove	-11.9405
мера	-11.9408
▁парки	-11.9408
▁чернил	-11.941
▁локте	-11.9414
жена	-11.9415
ивания	-11.9419
▁грудя	-11.9421
▁хор	-11.9426
намного	-11.9428
▁ЗАКАЗА	-11.943
▁Открыва	-11.943
▁Ульяновска	-11.9432
▁сер	-11.9435
тически	-11.9439
пуп	-11.9441
▁Джинс	-11.9445
▁вины	-11.9445
ответствует	-11.9451
▁БОЛЬШ	-11.9453
▁бельем	-11.9456
▁посылками	-11.9458
▁дает	-11.946
▁вопроса	-11.9462
▁раскро	-11.9465
▁недостаточно	-11.9469
▁комбинезона	-11.9472
рючки	-11.9474
▁Откры	-11.9475
▁заказывают	-11.9477
▁бер	-11.949
ol	-11.9493
▁мехово	-11.9493
▁нужн	-11.9494
стирать	-11.9496
ман	-11.9499
▁свитеров	-11.9509
▁es	-11.951
нимают	-11.951
ab	-11.952
льные	-11.953
▁чудесны	-11.9534
▁Мурманск	-11.9537
:))	-11.9543
?!?	-11.9547
▁дни	-11.955
▁113	-11.9552
кручиваются	-11.9559
▁ура	-11.956
▁кругл	-11.9568
хрена	-11.9571
▁жуткое	-11.9575
▁Кофточк	-11.9582
удач	-11.959
▁зве	-11.9594
▁обманщики	-11.9594
▁(!)	-11.9597
▁интерес	-11.9603
АЕТ	-11.9609
▁зашиты	-11.9611
▁Чёрн	-11.9626
▁приход	-11.9627
▁удовлетвор	-11.963
ован	-11.9638
▁Ниж	-11.9667
▁жирно	-11.9675
▁закрыта	-11.9678
▁небо	-11.9679
ИМ	-11.9694
▁заявленны	-11.9696
жку	-11.9701
▁классически	-11.9704
▁отправился	-11.971
меется	-11.9713
▁принято	-11.9716
ual	-11.9725
▁желто	-11.9727
▁выкину	-11.9729
клеил	-11.9729
▁переписыва	-11.9732
ейшее	-11.9744
▁окрас	-11.976
▁длинноват	-11.9761
▁обтягивающ	-11.9764
▁торчать	-11.9765
▁задни	-11.9775
▁обмана	-11.9783
чила	-11.9795
▁дж	-11.9816
▁v	-11.9819
ставлены	-11.982
енную	-11.9836
рад	-11.9839
правил	-11.984
▁зади	-11.9861
ьте	-11.9861
▁приталена	-11.9866
-62	-11.9875
▁прождал	-11.9893
мент	-11.99
▁возникл	-11.9908
товара	-11.991
▁оригинале	-11.9914
джи	-11.9924
28	-11.9928
ry	-11.9931
▁небольшо	-11.9938
▁качественной	-11.9948
▁просвечивающая	-11.9955
▁од	-11.9969
ходить	-11.9972
йдется	-11.9978
▁lo	-11.9983
ации	-11.9984
▁просьба	-11.9987
47	-11.9987
ляю	-11.9997
▁растянуты	-12.0005
▁голов	-12.0012
▁расстроен	-12.0017
▁реш	-12.0024
▁порт	-12.004
ация	-12.0041
скры	-12.0041
▁БЫ	-12.0046
сибо	-12.0047
рак	-12.0047
обычная	-12.0052
качественная	-12.0052
▁коро	-12.0056
летели	-12.006
стегнуть	-12.0063
▁весел	-12.0068
▁подвел	-12.0079
▁кош	-12.0084
▁джемпера	-12.0093
меняйте	-12.0109
Само	-12.0112
▁качеств	-12.0125
▁свете	-12.0134
ИНА	-12.0135
79	-12.0136
▁подшиты	-12.014
Откры	-12.0145
1,5	-12.0145
оооочень	-12.0148
▁вечера	-12.0151
ыл	-12.0182
красиво	-12.0185
НЫЙ	-12.0193
▁ПР	-12.0199
▁бед	-12.0203
▁местно	-12.0207
ИТЬ	-12.0212
▁сти	-12.0214
no	-12.0215
▁провер	-12.0219
▁To	-12.0227
▁03	-12.0231
зывала	-12.0232
▁бут	-12.0233
▁отвечали	-12.0235
ерил	-12.0237
ошлись	-12.0243
бсолютно	-12.0252
▁идеальн	-12.0252
▁фотк	-12.0262
тке	-12.027
жила	-12.0274
▁бабушки	-12.0277
значит	-12.0294
рная	-12.0306
out	-12.0309
▁продолж	-12.031
▁неплох	-12.0312
дошло	-12.0316
▁дай	-12.0318
▁заказываем	-12.0319
советовал	-12.0319
рик	-12.032
▁сосед	-12.0324
тягивают	-12.0328
106	-12.0329
Ещ	-12.0332
▁эт	-12.0333
▁постира	-12.0336
льной	-12.0337
работать	-12.0341
▁исправил	-12.0343
▁син	-12.0347
БЫ	-12.0347
олосы	-12.035
зала	-12.0351
62	-12.0353
обещали	-12.0354
левый	-12.0355
▁объясн	-12.0355
очная	-12.0358
▁топе	-12.0359
упакован	-12.036
▁середин	-12.0363
деляю	-12.0366
▁темном	-12.0367
пропорционально	-12.0369
сюда	-12.0371
Заказывайте	-12.0372
Одна	-12.0372
лёгкая	-12.0372
надеялась	-12.0373
Маломерит	-12.0373
стрейч	-12.0373
зимой	-12.0373
Взяла	-12.0373
тёплый	-12.0373
девочки	-12.0373
зелёный	-12.0373
мягкое	-12.0373
Выглядит	-12.0373
страшно	-12.0373
Думаю	-12.0373
теплый	-12.0373
непонятно	-12.0373
замок	-12.0373
отслеживалась	-12.0373
Всё	-12.0373
ответил	-12.0373
костюм	-12.0373
блузка	-12.0373
голая	-12.0373
свободно	-12.0373
зря	-12.0373
понравилось	-12.0373
маленький	-12.0374
▁жёлт	-12.0375
Xl	-12.0375
сключительн	-12.0375
принес	-12.0375
синие	-12.0375
▁работ	-12.0375
ниток	-12.0376
пуговицы	-12.0377
Эти	-12.0377
жилет	-12.0378
▁90-70-9	-12.0378
▁открывал	-12.0379
▁предлага	-12.0379
оказался	-12.038
стоит	-12.038
легкая	-12.038
заказывать	-12.0382
тяжки	-12.0382
▁42-44)	-12.0383
примерно	-12.0383
162	-12.0384
попросила	-12.0384
▁доступ	-12.0387
лазит	-12.0389
▁un	-12.039
сетка	-12.0391
158	-12.0393
незнаю	-12.0395
крут	-12.0396
оотношение	-12.0396
Сшито	-12.0397
▁продукта	-12.0399
▁дебил	-12.0399
спереди	-12.0401
▁стрем	-12.0404
▁аккуратны	-12.0407
▁последни	-12.0407
▁поролон	-12.0408
▁Владивосток	-12.041
▁Хабаровск	-12.041
неплохо	-12.0412
▁бабушкин	-12.0413
тратила	-12.0413
▁Новгород	-12.0418
▁Ожидани	-12.0423
▁влажн	-12.0423
▁рынк	-12.0424
▁Розов	-12.0425
внимательн	-12.0426
▁закрывал	-12.0426
▁фирм	-12.0427
▁прислала	-12.0427
31	-12.0432
▁отдал	-12.0433
▁доставлял	-12.0436
▁чулк	-12.0437
▁удачно	-12.0441
▁великолепны	-12.0441
▁кривым	-12.0443
▁тёмны	-12.0443
▁ПОЛ	-12.0443
бщалась	-12.0444
▁ПОДОШ	-12.0446
▁обострение	-12.0447
▁отрез	-12.0447
▁Пожалуй	-12.0447
▁уехал	-12.0447
▁бракован	-12.0448
▁нарисован	-12.0449
▁23.11	-12.0449
▁изъян	-12.0449
▁зелён	-12.045
▁рабоч	-12.0451
▁ума	-12.0451
мерять	-12.0451
нёс	-12.0451
▁изнаночн	-12.0453
▁теряет	-12.0456
▁требует	-12.0456
счастлив	-12.0456
▁13.10	-12.0457
▁определить	-12.0457
▁seam	-12.0457
▁кусочк	-12.0458
▁лейбл	-12.0458
▁брю	-12.0458
▁варианта	-12.0459
▁магаз	-12.046
▁шев	-12.046
▁понрав	-12.046
▁receive	-12.046
рилагаю	-12.046
▁отслеживаем	-12.0461
▁масс	-12.0461
▁треск	-12.0461
▁останови	-12.0461
where	-12.0461
АЖЕ	-12.0461
reat	-12.0461
▁service	-12.0461
▁Восторг	-12.0461
▁Страшн	-12.0461
▁диалог	-12.0461
▁космос	-12.0461
▁наклоне	-12.0461
▁оторвался	-12.0461
▁период	-12.0461
▁уточнить	-12.0461
еревочки	-12.0461
▁2017-11-2	-12.0461
▁number	-12.0461
▁refund	-12.0461
▁stick	-12.0461
▁store	-12.0461
▁БРЮК	-12.0461
▁Висит	-12.0461
▁Дёшево	-12.0461
▁Ижевск	-12.0461
▁КОФТ	-12.0461
▁НИТКИ	-12.0461
▁Опять	-12.0461
▁Первую	-12.0461
▁СИЛЬНО	-12.0461
▁ТОРЧАТ	-12.0461
▁барахло	-12.0461
▁безбожно	-12.0461
▁дешевые	-12.0461
▁едкий	-12.0461
▁женственно	-12.0461
▁замёрзла	-12.0461
▁застежек	-12.0461
▁индекс	-12.0461
▁квитанци	-12.0461
▁кнопку	-12.0461
▁кнопок	-12.0461
▁крупнее	-12.0461
▁крупно	-12.0461
▁леггинсах	-12.0461
▁моделях	-12.0461
▁наверняка	-12.0461
▁наизнанку	-12.0461
▁накидку	-12.0461
▁неопрятно	-12.0461
▁общителен	-12.0461
▁обязательства	-12.0461
▁одергивать	-12.0461
▁оригинальный	-12.0461
▁отклеиваются	-12.0461
▁отливом	-12.0461
▁палантин	-12.0461
▁петелек	-12.0461
▁платьице	-12.0461
▁подешевле	-12.0461
▁подобран	-12.0461
▁подороже	-12.0461
▁пойдёшь	-12.0461
▁покроя	-12.0461
▁порвётся	-12.0461
▁потрачено	-12.0461
▁появился	-12.0461
▁поярче	-12.0461
▁пригодится	-12.0461
▁расчетом	-12.0461
▁рубашкой	-12.0461
▁серьги	-12.0461
▁съезжают	-12.0461
▁таможни	-12.0461
▁туловище	-12.0461
▁Крупн	-12.0461
▁алиекспресс	-12.0461
▁комментариев	-12.0461
▁левого	-12.0461
▁последнем	-12.0461
▁пумпон	-12.0461
▁среднюю	-12.0461
▁установлен	-12.0461
▁чётко	-12.0461
Возвращать	-12.0461
кусочек	-12.0461
▁05.12	-12.0461
▁threads	-12.0461
▁Пермск	-12.0461
▁голубое	-12.0461
▁ласины	-12.0461
▁некритично	-12.0461
▁понятен	-12.0461
бсалютн	-12.0461
▁жопа	-12.0461
▁лотере	-12.0461
▁полгода	-12.0461
▁фиолетовая	-12.0461
▁Яркие	-12.0461
▁кулон	-12.0461
▁colour	-12.0461
▁МСК	-12.0461
▁гнома	-12.0461
▁регулируется	-12.0461
▁problem	-12.0461
▁мерить	-12.0461
▁присесть	-12.0461
▁тонюсенький	-12.0461
▁вскрыла	-12.0461
▁подлинее	-12.0461
▁гамаши	-12.0461
▁отписался	-12.0461
▁забыть	-12.0461
▁Второе	-12.0461
▁ЖДАЛА	-12.0461
▁волны	-12.0462
▁находиться	-12.0462
▁офигенный	-12.0462
▁судите	-12.0462
▁pro	-12.0462
▁москву	-12.0462
▁Пятно	-12.0462
▁волной	-12.0462
▁лапша	-12.0462
▁оставалось	-12.0462
▁переливается	-12.0462
▁помню	-12.0462
▁ожидании	-12.0462
▁Суп	-12.0462
▁бежевом	-12.0462
▁спортзал	-12.0462
▁осенний	-12.0462
▁дверей	-12.0462
▁офигенная	-12.0462
▁свободней	-12.0462
▁дырочек	-12.0462
▁мелкая	-12.0462
▁матовый	-12.0462
▁Милая	-12.0462
▁Понятно	-12.0462
▁добросовестным	-12.0462
▁добротно	-12.0462
▁взрослому	-12.0462
▁паховой	-12.0462
▁шлют	-12.0462
aid	-12.0462
▁декор	-12.0462
▁кролик	-12.0462
▁прикрывают	-12.0462
▁отелье	-12.0462
ТЕП	-12.0462
▁ДЫРКА	-12.0462
▁катушках	-12.0462
▁уродлив	-12.0462
▁концу	-12.0462
▁расползется	-12.0462
▁НЕДЕЛИ	-12.0462
▁Плащ	-12.0462
▁sewn	-12.0462
▁гладкий	-12.0462
▁лезит	-12.0462
▁замком	-12.0462
▁легенцы	-12.0462
▁изменилось	-12.0462
▁легче	-12.0462
▁легги	-12.0462
▁waited	-12.0462
packet	-12.0462
▁добилась	-12.0462
▁джегинсы	-12.0462
▁миниатюрных	-12.0462
▁подтвердить	-12.0462
▁Электризуется	-12.0462
▁отвалится	-12.0462
▁Узкие	-12.0462
▁прогулку	-12.0462
▁отвалились	-12.0463
▁складочки	-12.0463
▁чулках	-12.0463
▁перетягивают	-12.0463
▁кондиционером	-12.0463
▁Сдек	-12.0463
▁поломан	-12.0463
▁уверил	-12.0463
▁голубым	-12.0463
▁гетры	-12.0463
▁проучила	-12.0463
uch	-12.0463
▁клеем	-12.0463
▁блузок	-12.0463
текла	-12.0463
▁стильные	-12.0463
▁бросили	-12.0463
▁долларов	-12.0463
▁адресата	-12.0463
ОЖЕ	-12.0463
▁картошки	-12.0464
▁дырявый	-12.0464
ОСТАВ	-12.0464
▁Удачн	-12.0464
▁тяжёлая	-12.0464
▁заколк	-12.0464
▁предлагает	-12.0464
▁Блин	-12.0464
▁синих	-12.0464
▁Every	-12.0464
▁Легкая	-12.0464
▁лосинах	-12.0464
▁вызывает	-12.0464
▁крае	-12.0464
▁одинаковая	-12.0464
ob	-12.0465
▁следова	-12.0465
▁хлопковый	-12.0465
▁стройные	-12.0465
лазиют	-12.0465
▁исполнение	-12.0465
▁напутали	-12.0465
▁язык	-12.0465
▁шлет	-12.0465
сфотографировать	-12.0465
▁тухло	-12.0465
ity	-12.0466
▁подучила	-12.0466
▁кремовый	-12.0466
катываются	-12.0466
▁подожди	-12.0467
▁беременной	-12.0467
▁подкладочной	-12.0467
▁байк	-12.0467
▁Лёгк	-12.0467
ЕСТЬ	-12.0467
▁пришлют	-12.0467
▁фотосессии	-12.0467
▁треугольником	-12.0467
▁морщится	-12.0467
▁задержку	-12.0468
▁Дело	-12.0468
▁звездочки	-12.0468
▁сестры	-12.0468
▁жалобы	-12.0468
▁недочёты	-12.0468
▁женскую	-12.0468
▁получив	-12.0468
▁неаккуратный	-12.0468
▁носку	-12.0468
▁шортами	-12.0468
▁чересчур	-12.0468
▁чувствуешь	-12.0468
▁крепкие	-12.0469
▁брос	-12.0469
▁сыну	-12.0469
▁катышек	-12.0469
▁ЗАКАЗЫВАЛА	-12.0469
▁старый	-12.0469
▁ярлыков	-12.047
▁желетк	-12.047
▁Решение	-12.047
▁квадратный	-12.0471
▁Башкирии	-12.0471
▁возможным	-12.0471
▁лжи	-12.0471
▁пустот	-12.0471
▁курточки	-12.0471
▁чут	-12.0472
▁поддевать	-12.0472
▁стрелками	-12.0472
▁ковточка	-12.0472
▁Узк	-12.0472
шивки	-12.0473
чеень	-12.0473
▁увеличива	-12.0473
▁поддержку	-12.0473
▁глазом	-12.0474
чество	-12.0474
▁благодарственн	-12.0474
▁сортировочно	-12.0474
▁жирных	-12.0474
▁тихи	-12.0474
ОООО	-12.0474
▁Многи	-12.0474
▁кожаные	-12.0475
▁десяти	-12.0475
▁проплешины	-12.0475
▁разочарованы	-12.0475
плачу	-12.0475
▁35%	-12.0475
▁стройная	-12.0476
▁МАЛА	-12.0476
/50	-12.0476
▁хххл	-12.0476
▁отнести	-12.0476
▁заказывай	-12.0476
▁залом	-12.0477
остатки	-12.0477
писалась	-12.0477
▁енот	-12.0478
▁словами	-12.0478
▁разгладить	-12.0478
▁искусственного	-12.0478
▁оторвались	-12.0478
▁МАЛ	-12.0479
▁судьба	-12.0479
▁привлечение	-12.0479
▁вонял	-12.048
▁Подол	-12.048
▁летнем	-12.048
▁дыр	-12.048
Доставил	-12.048
Пб	-12.048
▁Гольф	-12.0481
▁Бирок	-12.0481
▁42/44	-12.0481
▁change	-12.0481
▁порядочность	-12.0481
▁пленк	-12.0481
▁бесформенно	-12.0481
▁понятные	-12.0481
▁нежные	-12.0481
▁великолепный	-12.0482
▁обмет	-12.0482
▁собачка	-12.0482
▁снимая	-12.0482
▁оказал	-12.0483
▁Затем	-12.0483
▁рэ	-12.0483
▁парку	-12.0484
▁правого	-12.0484
▁бир	-12.0484
▁клевый	-12.0485
▁походишь	-12.0485
▁линейке	-12.0486
▁зная	-12.0486
▁пластика	-12.0486
оооо	-12.0486
▁следующем	-12.0487
▁марки	-12.0491
▁потрясающее	-12.0491
▁кривыми	-12.0492
▁поносишь	-12.0492
▁отню	-12.0492
▁Проблема	-12.0493
▁женщины	-12.0493
▁распускаются	-12.0493
▁худой	-12.0493
▁совпадение	-12.0493
▁смогли	-12.0493
▁Коротковаты	-12.0493
▁свит	-12.0494
man	-12.0494
▁распродажи	-12.0494
▁снег	-12.0495
▁доставляет	-12.0496
▁Принес	-12.0497
ДЛИН	-12.0497
средн	-12.0497
▁дату	-12.0498
new	-12.0498
▁Белый	-12.0498
▁завязать	-12.0498
десь	-12.0499
▁прошить	-12.0499
▁отделка	-12.0499
▁устроила	-12.05
▁неадекват	-12.0501
▁красной	-12.0502
▁грамма	-12.0503
▁срезать	-12.0503
▁клетк	-12.0505
▁though	-12.0506
▁полиняли	-12.0506
▁создаёт	-12.051
▁3000	-12.051
▁прекрасные	-12.0513
▁толщине	-12.0513
ватым	-12.0513
липает	-12.0514
▁швейн	-12.0515
ali	-12.0518
▁Имеет	-12.052
▁подкачала	-12.052
▁вероятно	-12.0521
▁отметил	-12.0521
просить	-12.0522
тянулись	-12.0523
▁сходила	-12.0523
▁планке	-12.0524
▁отпуске	-12.0525
секс	-12.0525
▁высокими	-12.0525
▁точным	-12.0527
▁раскроен	-12.0527
▁принципа	-12.0528
▁ушила	-12.0528
▁работал	-12.0529
▁рекламе	-12.053
▁новым	-12.0531
▁отправленный	-12.0533
▁попал	-12.0534
▁коленки	-12.0534
▁паха	-12.0534
▁выкроен	-12.0534
▁Ткан	-12.0537
▁дочку	-12.054
▁жёлтым	-12.054
▁Нормальное	-12.0541
▁(!!!)	-12.0542
▁пойду	-12.0542
▁определённо	-12.0545
▁шарфом	-12.0547
▁шол	-12.0548
26	-12.0548
▁силуэта	-12.0548
ЕНИЕ	-12.0552
▁слову	-12.0553
▁go	-12.0555
▁начеса	-12.0555
▁удовлетворил	-12.0557
▁огороде	-12.0558
делю	-12.0558
▁рассчитана	-12.0559
зов	-12.0559
-60-90	-12.0559
▁скрыть	-12.056
красных	-12.0563
7-15	-12.0564
▁последней	-12.0566
▁плечики	-12.0566
▁тёплым	-12.0566
▁натянули	-12.0567
▁its	-12.0569
▁ногой	-12.0569
▁ищите	-12.0569
полнение	-12.0569
▁недовольны	-12.0574
▁Начал	-12.0579
косо	-12.0579
▁тканев	-12.0579
▁понятным	-12.0585
▁шок	-12.0592
▁пересылка	-12.0593
сот	-12.0594
перва	-12.0594
дец	-12.0595
транный	-12.06
▁соседни	-12.0601
▁ответила	-12.0601
▁желтом	-12.0604
всего	-12.0609
ero	-12.0609
▁настоящая	-12.0611
друга	-12.0611
▁манжета	-12.0615
▁Получили	-12.0615
▁параметра	-12.0616
▁великолепная	-12.0618
▁поставщика	-12.0618
▁сплошны	-12.0619
-1000	-12.0624
гибаются	-12.0625
▁моделью	-12.0631
▁решает	-12.0632
пит	-12.0637
▁верхом	-12.0642
▁нормальным	-12.0643
▁Кор	-12.0645
▁говорили	-12.0653
▁mo	-12.0657
▁отнесла	-12.0658
▁зама	-12.0662
▁налазит	-12.0664
▁нечестный	-12.0666
вода	-12.0669
Ширина	-12.067
▁ляп	-12.067
▁Закрыл	-12.0686
вайте	-12.0688
▁полотно	-12.0691
▁сколь	-12.0698
▁низом	-12.0702
▁Чер	-12.0705
▁мерзну	-12.0708
▁тоненьк	-12.071
менить	-12.074
▁негативны	-12.0743
om	-12.0744
59	-12.0747
▁грязной	-12.075
▁поступила	-12.0753
?"	-12.0759
▁необработанны	-12.076
we	-12.0764
▁замен	-12.0766
То	-12.0769
▁Розовы	-12.0778
ОМУ	-12.0788
▁предложенн	-12.0795
жестковат	-12.08
go	-12.0801
▁поношу	-12.0802
▁соо	-12.0814
▁котик	-12.0826
есто	-12.0838
соединяю	-12.085
огнут	-12.0854
стались	-12.0856
юще	-12.0862
голуб	-12.0865
▁куче	-12.0875
▁почтов	-12.0876
АН	-12.0879
▁обычным	-12.0882
чиком	-12.0884
▁стоил	-12.0893
кладываю	-12.0894
▁дура	-12.091
-74	-12.0922
▁меху	-12.0927
▁Номер	-12.0931
казывается	-12.0943
▁обычны	-12.0943
▁мелко	-12.0943
▁наверх	-12.0945
▁женщина	-12.0955
кажет	-12.0962
▁желт	-12.0968
??????	-12.097
ЧЕ	-12.0972
▁искусственно	-12.0979
уха	-12.0982
per	-12.0986
делает	-12.099
▁рр	-12.0991
▁поддерживает	-12.0992
▁Урал	-12.0996
КТО	-12.1005
▁увеличивает	-12.1025
▁растянуто	-12.1031
пустить	-12.1031
/3	-12.1034
жды	-12.1037
▁бег	-12.1044
▁вынес	-12.1045
МАР	-12.105
пуш	-12.1063
▁особы	-12.1079
▁крути	-12.1082
2,5	-12.109
▁замочк	-12.1101
▁Торчащи	-12.1101
ставлять	-12.1102
▁отправи	-12.1109
пробовала	-12.1114
▁увеличи	-12.112
ставлял	-12.1129
▁чь	-12.1129
▁замуч	-12.1129
казываю	-12.113
▁худе	-12.1134
нести	-12.1137
анной	-12.1139
▁представлено	-12.1141
▁Смотр	-12.1141
▁нижнем	-12.1145
ive	-12.115
▁почтовы	-12.1152
▁предоставлен	-12.1163
22	-12.1168
▁шуршат	-12.1175
▁Оцени	-12.1178
▁увидел	-12.1178
▁попада	-12.1179
бли	-12.1197
▁Ставрополь	-12.1206
▁завод	-12.1215
ением	-12.1216
▁покинул	-12.1217
-75	-12.122
▁безупречн	-12.1231
инг	-12.124
▁улучши	-12.124
▁Дочк	-12.1241
▁индивидуально	-12.1244
ываются	-12.1249
важды	-12.1252
▁поднимаю	-12.1259
▁отврат	-12.126
пущенные	-12.1274
▁шкур	-12.1278
▁считает	-12.1287
рога	-12.1287
▁крут	-12.1296
▁покрас	-12.1311
▁Написал	-12.1311
-80-10	-12.1321
отправля	-12.1323
работ	-12.1325
▁решал	-12.134
иний	-12.1349
▁съе	-12.1353
▁слон	-12.1362
▁встреча	-12.1363
уль	-12.1372
▁Чёрны	-12.1372
▁проч	-12.1377
▁добро	-12.1378
рали	-12.1378
ждали	-12.1387
ure	-12.1395
вание	-12.1396
▁указывает	-12.1398
ойдётся	-12.1406
▁насыщенно	-12.1422
приятно	-12.1422
слой	-12.1428
ke	-12.1433
АБ	-12.1434
ётся	-12.1438
▁чу	-12.1441
стёгивать	-12.1441
▁долгождан	-12.146
ЫХ	-12.1464
▁завязыва	-12.1465
▁pu	-12.147
▁обманут	-12.1471
достаточно	-12.1475
▁током	-12.1477
красивые	-12.148
шими	-12.1483
удобные	-12.1484
аккуратные	-12.1486
качественно	-12.1489
▁эл	-12.1492
правильно	-12.1492
▁обратн	-12.1497
▁дан	-12.151
ровно	-12.151
ep	-12.1513
▁бренд	-12.1516
▁подверну	-12.1521
▁Белгород	-12.1534
▁выгляд	-12.1537
нький	-12.1545
▁выдел	-12.1551
▁уш	-12.1556
чное	-12.1557
▁среди	-12.1573
пустила	-12.1579
▁1,6	-12.1583
▁кож	-12.1583
ставить	-12.159
РИ	-12.1592
чья	-12.1593
едь	-12.1599
дель	-12.1608
замен	-12.1608
вным	-12.1609
150	-12.1611
писывать	-12.1612
▁центр	-12.1613
-54	-12.1617
ela	-12.1618
▁выставил	-12.1619
▁улетел	-12.162
▁компенсирова	-12.1621
▁полноценн	-12.1625
▁мел	-12.1625
делать	-12.163
▁выдал	-12.1631
were	-12.1635
▁женск	-12.1637
красив	-12.1645
▁плечевы	-12.1647
лезут	-12.1649
ему	-12.1651
порт	-12.1655
держался	-12.1657
▁Джинса	-12.1662
▁длинно	-12.1666
▁отлетел	-12.1673
живую	-12.1677
ally	-12.1679
▁вещ	-12.169
▁зим	-12.1701
гладить	-12.1712
МО	-12.1712
брать	-12.1717
ххх	-12.1718
165	-12.172
!!))	-12.1723
▁900	-12.1724
▁07.0	-12.1727
добно	-12.1727
▁Маловат	-12.1729
▁поношен	-12.1737
▁схож	-12.1739
пала	-12.1741
▁золотист	-12.1743
▁потреска	-12.1748
ступил	-12.1748
ставка	-12.175
боялась	-12.1751
▁различ	-12.1763
ранее	-12.1764
оняют	-12.1768
▁Длин	-12.1773
▁450	-12.1782
▁Сетк	-12.1782
зиму	-12.1784
шол	-12.1785
пан	-12.1786
oks	-12.1789
▁проверен	-12.1789
!!!!!!!!!!!!!	-12.1789
▁Вещи	-12.179
▁толстовк	-12.1792
совету	-12.1795
зима	-12.1796
Москва	-12.1798
подклад	-12.1798
время	-12.1799
сторон	-12.18
СПАСИБО	-12.1801
ПРОДАВЕЦ	-12.1801
мошенник	-12.1801
Прислали	-12.1801
Обидно	-12.1801
яркая	-12.1801
Покупала	-12.1801
реальность	-12.1801
крайне	-12.1801
естественно	-12.1801
Пошив	-12.1801
Цена	-12.1802
голимая	-12.1802
липнет	-12.1802
полный	-12.1802
белые	-12.1802
трусы	-12.1802
описание	-12.1802
пуховик	-12.1802
широкие	-12.1802
тонкое	-12.1802
яркий	-12.1802
Юбка	-12.1802
посылку	-12.1802
Рост	-12.1802
Подошло	-12.1802
маленькие	-12.1802
топорщится	-12.1802
ближе	-12.1802
огромное	-12.1803
▁треугольник	-12.1803
маломерка	-12.1803
есьма	-12.1804
отправлен	-12.1805
эта	-12.1805
▁Аккуратн	-12.1806
однако	-12.1806
Единственный	-12.1806
Ужасный	-12.1807
явно	-12.1807
отдала	-12.181
▁оправдыва	-12.1811
▁соверш	-12.1812
ужасный	-12.1813
упаковано	-12.1816
статься	-12.1819
груди	-12.1822
этих	-12.1823
лучш	-12.1825
▁So	-12.1826
татус	-12.1827
просвечивается	-12.1832
▁бахром	-12.1836
▁печаль	-12.1836
▁отслеживал	-12.184
▁вскрыт	-12.1841
▁залез	-12.1841
▁давольн	-12.1842
нуться	-12.1846
▁информаци	-12.1846
▁изменил	-12.1847
▁дороги	-12.1847
▁миниатюрн	-12.1848
▁карма	-12.1848
самое	-12.1849
▁Похож	-12.1851
▁собак	-12.1856
▁покупал	-12.1858
▁29.11	-12.1859
▁дума	-12.186
▁звонил	-12.1861
▁продает	-12.1861
▁замерам	-12.1861
окуп	-12.1862
▁мозг	-12.1862
абсолютно	-12.1863
Ожида	-12.1867
пыт	-12.1867
▁возвращен	-12.1868
▁Моск	-12.1869
▁Мошенник	-12.1869
▁натуральны	-12.1871
врал	-12.1871
▁четки	-12.1871
дают	-12.1872
ставку	-12.1872
▁17.10	-12.1874
летают	-12.1877
▁предусмотрен	-12.1877
формирован	-12.1877
▁26.11	-12.1877
▁окончани	-12.1878
▁высока	-12.1878
▁неприятна	-12.1879
▁собрал	-12.1879
▁единиц	-12.1879
▁пластмасс	-12.188
▁малюсеньк	-12.188
щина	-12.188
▁14.12	-12.1881
прашивал	-12.1881
▁элемент	-12.1881
▁Лиф	-12.1882
▁маркер	-12.1883
ложили	-12.1883
wo	-12.1884
▁слое	-12.1884
▁закатывать	-12.1884
▁продувает	-12.1884
откровенн	-12.1885
▁завершил	-12.1886
▁напута	-12.1886
▁красят	-12.1886
ОСТА	-12.1886
▁практич	-12.1887
▁выточка	-12.1887
чивый	-12.1887
▁30.11	-12.1887
▁коряв	-12.1888
▁химоз	-12.1888
tter	-12.1888
▁ЖЕ	-12.1888
▁деффект	-12.1888
▁ставит	-12.1888
/70/9	-12.1889
▁подчёркива	-12.1889
oney	-12.1889
▁убедил	-12.1889
▁ПОЛНО	-12.1889
ведом	-12.189
оформил	-12.189
▁wait	-12.189
▁завтра	-12.189
▁отклик	-12.189
▁потряс	-12.189
▁маслян	-12.189
▁школьник	-12.189
nfortunately	-12.189
rocessing	-12.189
Думайте	-12.189
ЕСТО	-12.189
реальная	-12.189
▁37-38	-12.189
▁Excellent	-12.189
▁Super	-12.189
▁gift	-12.189
▁happy	-12.189
▁messages	-12.189
▁pants	-12.189
▁print	-12.189
▁refuse	-12.189
▁respond	-12.189
▁result	-12.189
▁satisfied	-12.189
▁usual	-12.189
▁Воняет	-12.189
▁ДОВОЛЬНА	-12.189
▁Дефект	-12.189
▁Кемерово	-12.189
▁Липецк	-12.189
▁Молодец	-12.189
▁ОТПРАВИЛ	-12.189
▁ПОЧТ	-12.189
▁Прекрасные	-12.189
▁Просвечивают	-12.189
▁СВЯЗЫВАЙТЕСЬ	-12.189
▁Синтепон	-12.189
▁Ставрополя	-12.189
▁ближайше	-12.189
▁вцелом	-12.189
▁выделяются	-12.189
▁выпирают	-12.189
▁вышлю	-12.189
▁горошек	-12.189
▁декабрь	-12.189
▁дешевит	-12.189
▁дешевую	-12.189
▁диспут	-12.189
▁достойный	-12.189
▁единственная	-12.189
▁жизнь	-12.189
▁закажит	-12.189
▁застегнулись	-12.189
▁звонка	-12.189
▁зеленую	-12.189
▁кофточке	-12.189
▁лайкра	-12.189
▁лайкрой	-12.189
▁мышкой	-12.189
▁неправильная	-12.189
▁непрокрас	-12.189
▁облегания	-12.189
▁обошлось	-12.189
▁обуви	-12.189
▁одноразовый	-12.189
▁основе	-12.189
▁осыпаются	-12.189
▁отпорола	-12.189
▁очередь	-12.189
▁переживет	-12.189
▁подарком	-12.189
▁полистер	-12.189
▁полотенце	-12.189
▁потеплее	-12.189
▁придираться	-12.189
▁применени	-12.189
▁принимает	-12.189
▁проблематично	-12.189
▁пятнышка	-12.189
▁регулярно	-12.189
▁рыжий	-12.189
▁серебристы	-12.189
▁симпатичнее	-12.189
▁сказав	-12.189
▁скидке	-12.189
▁скриншот	-12.189
▁скудный	-12.189
▁сожелен	-12.189
▁стиркой	-12.189
▁страницы	-12.189
▁строчкой	-12.189
▁сувенир	-12.189
▁транзит	-12.189
▁трапецией	-12.189
▁худышек	-12.189
▁чокер	-12.189
▁школьниц	-12.189
▁этикетку	-12.189
карандаш	-12.189
культур	-12.189
учтите	-12.189
▁36-38	-12.189
▁46/48	-12.189
▁cloth	-12.189
▁him	-12.189
▁Держит	-12.189
▁ЗАПАХ	-12.189
▁МЕНЯ	-12.189
▁Объём	-12.189
▁ПРИСЛАЛИ	-12.189
▁Посмотрю	-12.189
▁бледные	-12.189
▁блекло	-12.189
▁верёвоч	-12.189
▁вонючие	-12.189
▁вранье	-12.189
▁вспышк	-12.189
▁закончен	-12.189
▁короток	-12.189
▁мокрым	-12.189
▁отпарить	-12.189
▁отправителю	-12.189
▁пеньюар	-12.189
▁подобную	-12.189
▁пожелал	-12.189
▁разницу	-12.189
▁стрелкой	-12.189
▁убедить	-12.189
▁царапин	-12.189
▁челябинск	-12.189
▁эску	-12.189
▁chest	-12.189
▁Курск	-12.189
▁рассмотрении	-12.189
▁слёз	-12.189
▁феном	-12.189
3000006	-12.189
доброжелательный	-12.189
▁БОЛ	-12.189
▁Отстой	-12.189
▁надобности	-12.189
▁целофан	-12.189
▁дождаться	-12.189
▁знакомой	-12.189
▁клялся	-12.189
▁лопат	-12.189
▁8-10	-12.189
▁ПОКУПАТЬ	-12.189
▁Твери	-12.189
▁попозже	-12.189
▁тройка	-12.189
▁writ	-12.189
▁впиваются	-12.189
▁запястье	-12.189
▁змейк	-12.189
▁шлев	-12.189
▁Голуб	-12.189
▁Приморск	-12.189
▁большемерка	-12.189
▁вторым	-12.189
▁лучшая	-12.189
▁облезлый	-12.189
▁Лекал	-12.189
▁конверт	-12.189
▁контур	-12.189
▁существует	-12.189
▁грязных	-12.189
▁Офигенн	-12.189
▁пропускает	-12.189
▁сносно	-12.189
▁ветровку	-12.189
▁растягивании	-12.189
▁ботинками	-12.189
▁крест	-12.189
▁полинявш	-12.189
▁тусклее	-12.189
▁паспорт	-12.189
▁фотографией	-12.189
▁отзывчивость	-12.189
▁упирался	-12.189
▁рыже	-12.189
▁многим	-12.189
▁случаях	-12.189
8.01	-12.189
▁раздражает	-12.189
▁совесть	-12.189
▁ангор	-12.189
▁чулочки	-12.189
▁нахвалива	-12.189
▁advise	-12.189
▁разбираться	-12.189
▁чушь	-12.189
▁washing	-12.189
▁Велики	-12.189
▁впивается	-12.189
▁половинки	-12.189
катался	-12.189
▁дырочку	-12.189
▁помещается	-12.189
▁висюлька	-12.189
▁образцу	-12.189
▁худшая	-12.189
▁пропорции	-12.189
колокольчик	-12.189
▁white	-12.189
▁мягенькие	-12.189
▁присвоил	-12.189
▁выслан	-12.189
▁обалденное	-12.189
▁фотографию	-12.189
▁порядочным	-12.189
▁затяжку	-12.189
▁расползлись	-12.189
АЛЬНО	-12.189
▁подсядет	-12.1891
▁трое	-12.1891
▁мокрая	-12.1891
▁поверхности	-12.1891
▁Зелен	-12.1891
▁ребёнком	-12.1891
▁щиколотке	-12.1891
▁buyer	-12.1891
▁ПЕРВ	-12.1891
▁забирала	-12.1891
▁посылок	-12.1891
▁25.11	-12.1891
▁адекватный	-12.1891
▁миленько	-12.1891
▁клеится	-12.1891
▁лимон	-12.1891
▁ХОРОШО	-12.1891
▁сложена	-12.1891
▁епакет	-12.1891
▁потеть	-12.1891
▁расстёгивается	-12.1891
▁порекомендовал	-12.1891
▁пересылке	-12.1891
▁лёгкие	-12.1891
▁tracking	-12.1891
▁weeks	-12.1891
▁дойти	-12.1891
▁разочарования	-12.1891
▁90-65-9	-12.1891
▁Маме	-12.1891
▁польто	-12.1891
▁хорошенький	-12.1891
▁грубовата	-12.1891
▁простенько	-12.1891
▁женские	-12.1891
▁маечку	-12.1891
▁Удивительно	-12.1891
▁кретично	-12.1891
▁расстройство	-12.1891
eight	-12.1891
▁бедре	-12.1891
▁адресату	-12.1891
▁несуразные	-12.1891
▁закала	-12.1891
▁июль	-12.1891
▁рисунку	-12.1891
▁обыкновенные	-12.1891
▁БУД	-12.1891
▁посредственное	-12.1891
▁ПРЕД	-12.1891
▁бракованную	-12.1891
▁ботинки	-12.1891
▁невыносимый	-12.1891
▁паралон	-12.1891
▁маломеркой	-12.1892
▁perfectly	-12.1892
▁носках	-12.1892
▁укороченная	-12.1892
▁силу	-12.1892
▁обещают	-12.1892
▁маломерное	-12.1892
▁примерить	-12.1892
▁будешь	-12.1892
▁находился	-12.1892
▁Жесть	-12.1892
▁клево	-12.1892
▁высылают	-12.1892
▁вытянута	-12.1892
▁Значит	-12.1892
▁клуб	-12.1892
▁полупрозрачный	-12.1892
▁загнуть	-12.1892
▁Сибири	-12.1892
▁пришлет	-12.1892
▁прогулки	-12.1892
▁5*****	-12.1893
▁приобретению	-12.1893
▁парочку	-12.1893
▁очевидно	-12.1893
▁собираюсь	-12.1893
▁put	-12.1893
▁абсолютная	-12.1893
▁молодцы	-12.1893
▁зелёного	-12.1894
▁жарковато	-12.1894
▁рваное	-12.1894
▁холодные	-12.1894
▁чулков	-12.1894
▁целью	-12.1894
▁пятке	-12.1894
▁стандартные	-12.1894
▁10-15	-12.1894
▁узкими	-12.1894
▁ведет	-12.1894
шечки	-12.1894
▁шустр	-12.1895
▁seams	-12.1895
▁белоснежный	-12.1895
▁хлипкий	-12.1895
▁14.09	-12.1895
сем	-12.1895
▁пышные	-12.1895
▁your	-12.1895
▁дырявая	-12.1895
▁обыкновенная	-12.1895
▁вставками	-12.1896
▁побывал	-12.1896
▁отваливается	-12.1896
▁холодный	-12.1896
▁грязновато	-12.1896
▁толстых	-12.1896
▁кружевной	-12.1896
▁хлопков	-12.1896
▁строго	-12.1897
▁фирменный	-12.1897
▁нарядно	-12.1897
▁Петли	-12.1897
▁читаю	-12.1897
▁примеряла	-12.1897
▁окрасилась	-12.1897
▁скроены	-12.1898
▁подделку	-12.1898
▁Майку	-12.1898
▁ЧЕРНЫ	-12.1898
▁красоту	-12.1898
▁приталин	-12.1898
▁приложение	-12.1898
▁БЫСТРАЯ	-12.1898
▁блогеров	-12.1898
▁дешевкой	-12.1898
▁осадочек	-12.1898
▁свекрови	-12.1898
▁экземпляр	-12.1898
▁рыбой	-12.1898
▁рыбы	-12.1898
▁Одежд	-12.1899
▁отказываются	-12.1899
ten	-12.1899
▁предлагают	-12.1899
▁доброго	-12.1899
▁зелёная	-12.1899
▁оборк	-12.1899
▁20.07	-12.1899
▁Прав	-12.19
▁намерен	-12.19
▁двоякое	-12.19
▁режиме	-12.19
▁квартиру	-12.19
ДНО	-12.19
▁оплачивала	-12.19
▁пролетела	-12.19
▁авто	-12.19
▁смещен	-12.19
▁беды	-12.19
▁обожаю	-12.19
▁скроено	-12.19
▁расстроены	-12.1901
▁вину	-12.1901
▁возьмите	-12.1901
▁начинаются	-12.1901
▁ДОМ	-12.1901
▁предполагает	-12.1902
▁печалька	-12.1902
▁офигенно	-12.1902
▁ценой	-12.1902
▁российским	-12.1902
uy	-12.1902
▁условиях	-12.1902
▁перевели	-12.1903
▁волан	-12.1903
▁порванный	-12.1903
стёгиваются	-12.1905
▁вылезли	-12.1905
▁границе	-12.1906
▁Симпатичные	-12.1906
▁подкачало	-12.1906
▁дыру	-12.1906
▁вывести	-12.1907
▁джемперок	-12.1907
▁дырочками	-12.1907
▁машины	-12.1907
▁однотонн	-12.1907
▁поднимает	-12.1907
▁отмены	-12.1907
▁полосой	-12.1909
▁празднику	-12.1909
▁запут	-12.1909
▁стремная	-12.1909
▁коленке	-12.191
▁старая	-12.191
▁доказательство	-12.191
старался	-12.191
▁попалась	-12.191
▁10%	-12.191
▁оплату	-12.191
▁поздне	-12.1911
▁помятый	-12.1911
▁перекошено	-12.1912
ющее	-12.1912
▁октябрь	-12.1912
▁денежку	-12.1912
▁старой	-12.1912
▁симметрично	-12.1912
▁Надеялась	-12.1912
▁Дорого	-12.1912
▁Оформил	-12.1913
▁Извините	-12.1913
▁ворсом	-12.1913
▁дух	-12.1913
▁удлиненн	-12.1914
лезаю	-12.1914
▁поддержк	-12.1915
▁растегива	-12.1915
Они	-12.1916
▁надежды	-12.1917
▁врядли	-12.1917
▁Вмешал	-12.1918
▁оставили	-12.1918
▁уточняла	-12.1918
▁метро	-12.1918
ешок	-12.1919
▁хорошенькое	-12.1919
▁дамы	-12.1919
▁осеннее	-12.1919
▁половой	-12.1919
▁Мошенники	-12.1919
▁прострочки	-12.1919
▁зависла	-12.192
▁рубашечка	-12.192
▁клиента	-12.1921
тут	-12.1922
▁карманами	-12.1923
играть	-12.1923
▁списывалась	-12.1925
▁положение	-12.1925
▁Татарстана	-12.1926
слать	-12.1926
▁садиться	-12.1927
▁Отслеживалось	-12.1927
▁тепленький	-12.1927
▁обрезаны	-12.1927
▁укра	-12.1928
▁синими	-12.1928
▁висело	-12.1929
▁подтверждение	-12.1929
▁лишней	-12.193
СТР	-12.1931
черт	-12.1931
товаром	-12.1934
▁ga	-12.1935
▁заужена	-12.1935
▁отрезали	-12.1935
▁рукой	-12.1935
01.09	-12.1935
▁учет	-12.1935
▁радовать	-12.1936
▁Ожидание	-12.1938
▁своевременно	-12.1938
▁ведро	-12.1938
▁вынужден	-12.194
▁карточк	-12.194
▁hole	-12.1941
▁передаёт	-12.1942
видимому	-12.1943
▁желтое	-12.1943
▁подходящий	-12.1944
▁приемлемое	-12.1944
само	-12.1945
▁дискомфортно	-12.1946
▁рассмотрел	-12.1946
▁покажет	-12.1947
кладывать	-12.1947
▁ссылка	-12.1948
▁одеваю	-12.1948
▁Тип	-12.1949
line	-12.195
▁утро	-12.195
▁воняла	-12.195
▁высылали	-12.195
▁122	-12.1952
▁расклешен	-12.1953
▁числе	-12.1953
▁позвонили	-12.1954
▁походить	-12.1955
▁меньши	-12.1955
▁выдан	-12.1956
▁пытаюсь	-12.1957
увы	-12.1957
кривь	-12.1957
▁попробовала	-12.1958
▁распоро	-12.1959
носки	-12.196
ВОЗ	-12.1961
▁выглядела	-12.1962
▁разлез	-12.1962
шевелить	-12.1963
фотография	-12.1965
▁увеличивал	-12.1967
▁выполнено	-12.1968
▁разному	-12.1969
▁тонковатая	-12.197
▁метра	-12.197
▁удачный	-12.1971
▁опыту	-12.1975
▁хлипко	-12.1975
▁бюстом	-12.1977
▁висели	-12.1979
▁расстроили	-12.198
▁приходила	-12.1982
▁даст	-12.1983
чных	-12.1983
▁1600	-12.1983
▁стройным	-12.1983
-70-100	-12.1986
▁ножку	-12.1987
▁трико	-12.1987
un	-12.1987
▁РОСТ	-12.1988
▁захотели	-12.1988
▁Широки	-12.1989
▁смогут	-12.1989
бил	-12.199
▁оцениваю	-12.199
▁Неплохо	-12.1991
▁обработано	-12.1991
▁05	-12.1992
▁вопросом	-12.1992
▁Реш	-12.1993
▁иголк	-12.1994
▁обьеме	-12.1995
ским	-12.1996
БЕ	-12.1997
:(((	-12.2001
-44	-12.2003
ведь	-12.2005
▁эффектное	-12.2005
den	-12.2006
▁Тот	-12.2007
▁зеленым	-12.2008
▁поменяли	-12.2008
▁обнаружили	-12.2008
▁таможней	-12.2009
вонюч	-12.2012
аст	-12.2012
▁Отвечал	-12.2014
▁дожд	-12.2016
▁шью	-12.2017
eturn	-12.2019
▁тугой	-12.2019
▁шарфы	-12.202
▁капроновы	-12.2026
▁comp	-12.2028
ительное	-12.2029
▁Алли	-12.203
Нет	-12.2037
вных	-12.205
▁совпали	-12.205
▁хс	-12.2051
-70,	-12.2058
▁косточка	-12.2063
▁07	-12.2063
лето	-12.2066
▁пофиг	-12.2067
▁подключи	-12.207
▁Крыма	-12.2073
▁обрезана	-12.2073
▁царапают	-12.2074
вязанное	-12.2075
▁узкой	-12.2077
▁мам	-12.2081
получен	-12.2084
▁первоначальн	-12.2085
▁предварительно	-12.2085
▁Оренбургск	-12.2087
▁добросовестно	-12.209
клёпки	-12.2098
▁налезут	-12.21
▁произве	-12.2104
▁клею	-12.2105
▁золото	-12.211
?????	-12.211
▁нежное	-12.2111
ирует	-12.2111
▁новая	-12.2115
▁русс	-12.2117
деться	-12.2121
▁пуху	-12.2122
▁швеи	-12.2124
▁сужен	-12.2127
▁намека	-12.2128
▁;(	-12.2129
Кис	-12.2133
▁превосходно	-12.2134
▁покороче	-12.2147
ответственность	-12.2149
▁лифчике	-12.2152
▁Эт	-12.2152
TS	-12.2157
▁вперед	-12.216
▁use	-12.216
▁разным	-12.2162
бардо	-12.2165
ошью	-12.2167
▁заверну	-12.2169
▁ro	-12.2171
57	-12.2171
▁меняется	-12.2171
▁полноценны	-12.2171
ценить	-12.2172
▁выложил	-12.2176
▁Застежк	-12.2177
гиба	-12.2177
▁долетел	-12.2182
▁оперативн	-12.2184
▁Pos	-12.2187
ТСЯ	-12.2187
▁плюсом	-12.22
▁оставля	-12.2209
5%	-12.2251
▁странной	-12.2252
▁раскры	-12.2256
▁Нижн	-12.2257
гры	-12.226
▁расчитыва	-12.2268
▁мен	-12.2269
▁узнава	-12.2273
лезно	-12.2273
▁Бл	-12.2275
равн	-12.2276
стал	-12.2278
▁кривоваты	-12.2278
▁отрезаны	-12.2282
образный	-12.2283
▁деньг	-12.229
▁пяточк	-12.2291
▁найду	-12.2294
тык	-12.2295
-15	-12.2302
▁el	-12.2304
НЬ	-12.2306
▁en	-12.2311
лично	-12.2314
МНОГ	-12.2314
▁огромны	-12.2319
▁кривоват	-12.232
нку	-12.2324
▁заставил	-12.2325
вязывать	-12.2338
началу	-12.2348
▁долгожданно	-12.2352
▁косяч	-12.2354
▁обшит	-12.237
тянули	-12.2377
!!!!!!!!!!!!	-12.2383
▁множество	-12.239
▁отметка	-12.2396
▁раск	-12.2405
ирую	-12.2408
size	-12.241
▁леги	-12.2412
▁креп	-12.2444
▁мягк	-12.2448
регистрирова	-12.2448
▁склада	-12.2449
▁форм	-12.2451
▁горячи	-12.2455
-67-92	-12.2473
▁картинкам	-12.2499
▁проверяет	-12.25
▁потеря	-12.2504
▁подгиб	-12.2514
▁рек	-12.2517
▁уверенно	-12.2518
▁грамм	-12.2519
▁fr	-12.2523
▁вела	-12.2525
▁over	-12.2527
▁новогодне	-12.2534
▁бар	-12.2536
▁шкурка	-12.2539
▁дурака	-12.2544
▁рыб	-12.2545
щение	-12.2554
▁содержа	-12.2558
РОС	-12.2558
▁руководств	-12.2568
▁потерянно	-12.257
▁стоя	-12.2576
качественного	-12.2599
84	-12.2603
скоре	-12.2609
▁указанно	-12.2614
▁нашиты	-12.2622
ящих	-12.2625
▁букв	-12.2631
▁русски	-12.2631
▁di	-12.264
▁красном	-12.2644
еньким	-12.2676
▁загиб	-12.268
▁длинновата	-12.2693
-40	-12.2698
▁стоял	-12.2701
▁провал	-12.2714
▁имел	-12.2715
▁задержка	-12.2716
плы	-12.2723
▁Юбк	-12.2727
▁br	-12.2729
▁определенн	-12.2731
▁бочка	-12.2732
▁прозрач	-12.2732
▁буква	-12.2738
БО	-12.2743
фу	-12.2743
лять	-12.2752
сли	-12.2772
▁испортил	-12.2787
his	-12.2787
▁Волгоградск	-12.2793
▁окрашива	-12.2799
остью	-12.2804
▁клейк	-12.281
честно	-12.2824
▁светл	-12.2835
▁жирны	-12.2855
▁чашечк	-12.2855
▁винно	-12.2862
▁предложи	-12.2866
▁неприлично	-12.2866
имости	-12.2874
▁Прямо	-12.288
49	-12.2887
▁помещ	-12.2891
▁Буд	-12.2893
▁эконом	-12.2903
▁молод	-12.2913
▁гнев	-12.292
▁встал	-12.2921
▁объемно	-12.2922
▁чудес	-12.2924
166	-12.2933
▁Хорош	-12.2955
учая	-12.2964
▁Син	-12.2984
▁полиэтилен	-12.2989
▁верны	-12.2993
▁:(((	-12.2996
▁указа	-12.3013
шься	-12.3028
▁показывать	-12.304
▁невнимательно	-12.3043
лезло	-12.3044
-14	-12.305
НЯ	-12.3051
давно	-12.3051
▁расстегива	-12.3052
КОЙ	-12.3053
▁комфорт	-12.3062
ходила	-12.3063
фир	-12.3065
160	-12.3067
дену	-12.3072
▁морщин	-12.3079
▁ТК	-12.3105
виде	-12.3106
▁качес	-12.3109
▁пополз	-12.3111
▁удлин	-12.3118
▁частичном	-12.3118
▁медленн	-12.3127
▁сердеч	-12.3128
ице	-12.3132
метр	-12.3135
▁убрали	-12.3137
удобная	-12.3145
▁классическ	-12.3148
данному	-12.315
▁отказыва	-12.316
35	-12.3163
имый	-12.3164
тиль	-12.3168
ple	-12.3179
дж	-12.318
▁tight	-12.3192
▁Заявленны	-12.3201
▁Выгляд	-12.3222
▁Петербург	-12.3223
▁актив	-12.3223
▁плати	-12.3231
▁wh	-12.3237
▁обнаружил	-12.3239
Сшит	-12.3241
▁Киров	-12.3259
/11	-12.3262
▁прочно	-12.3262
станут	-12.3266
чок	-12.327
▁салатов	-12.3272
▁царапа	-12.3273
▁полз	-12.3285
▁удивил	-12.3297
▁ООО	-12.3299
▁внимательным	-12.3302
▁заявлены	-12.3302
▁произв	-12.3312
▁коротк	-12.3314
оды	-12.3336
оборот	-12.3338
видим	-12.3343
коваты	-12.3353
резов	-12.3356
▁смотрели	-12.3358
держит	-12.3358
▁оправ	-12.3362
▁липнут	-12.3364
риентировалась	-12.3365
строение	-12.3367
реканий	-12.3367
ельно	-12.3369
▁свобод	-12.337
▁одев	-12.337
▁:((	-12.3373
▁Подробн	-12.3374
скала	-12.3375
стоящая	-12.3375
ернут	-12.3386
заявлен	-12.3387
подобное	-12.339
▁жарк	-12.3391
дрес	-12.3397
Верх	-12.3398
нулся	-12.3406
Рукав	-12.3418
est	-12.3419
готов	-12.3422
▁животика	-12.3423
▁расстояни	-12.3425
▁Пример	-12.3426
сылка	-12.3427
▁обманка	-12.3429
ыбросила	-12.3434
ворачивать	-12.3436
НЕЕ	-12.3441
Э	-12.3442
▁нашим	-12.3443
ame	-12.345
▁красивы	-12.3456
ноги	-12.3459
▁одел	-12.3459
▁устроил	-12.3462
экономи	-12.3463
Джинс	-12.3463
Отлично	-12.3465
высокую	-12.3466
обьем	-12.3466
▁(4	-12.3466
больших	-12.3467
Гол	-12.3467
извините	-12.3467
Красн	-12.3467
желтый	-12.3467
наклейка	-12.3467
ширина	-12.3468
тишина	-12.3468
РАЗМЕР	-12.3468
ДЕНЬГИ	-12.3468
Видимо	-12.3468
является	-12.3468
Мягкая	-12.3468
Плюс	-12.3468
Хотелось	-12.3468
завтраками	-12.3468
Лучше	-12.3468
расцветка	-12.3468
розовая	-12.3468
знает	-12.3468
Совсем	-12.3468
сентября	-12.3468
полоски	-12.3468
кружева	-12.3468
никакого	-12.3468
Резинк	-12.3468
грязно	-12.3468
молодец	-12.3468
полная	-12.3468
кардиган	-12.3468
ощущение	-12.3468
XXXL	-12.3468
The	-12.3468
Получила	-12.3468
Рубашк	-12.3468
довольно	-12.3469
Свитер	-12.3469
понравился	-12.3469
сказать	-12.3469
ЧТО	-12.3469
Заказывали	-12.3469
кажется	-12.3469
Большое	-12.3469
▁труб	-12.347
отличная	-12.347
люблю	-12.347
подошли	-12.347
вырез	-12.347
бант	-12.3471
Недовольна	-12.3472
халат	-12.3472
отвратительно	-12.3472
написано	-12.3472
говно	-12.3473
принт	-12.3473
the	-12.3474
наче	-12.3474
норм	-12.3474
▁успел	-12.3475
▁труд	-12.3476
станет	-12.3476
▁хитр	-12.3479
▁мягоньк	-12.3479
▁отвратительны	-12.3479
типа	-12.348
недель	-12.348
столько	-12.3481
Потом	-12.3481
175	-12.3482
▁скроен	-12.3482
скоро	-12.3483
тирать	-12.3487
несмотря	-12.3491
естра	-12.3491
▁плетен	-12.3492
лучайно	-12.3492
АСЬ	-12.3492
невозможно	-12.3496
▁отношени	-12.3499
кажем	-12.3501
▁зимни	-12.3501
▁ощущени	-12.3502
похожа	-12.3502
▁Архангельск	-12.3503
▁кэшбэк	-12.3504
▁окантовк	-12.3504
▁РАС	-12.3505
▁уточнил	-12.3506
▁заметил	-12.3508
▁1700	-12.3509
▁выиграл	-12.3509
▁лип	-12.351
▁исправит	-12.3511
▁отделк	-12.3514
▁потрясающе	-12.3516
▁Впечатлени	-12.3517
ant	-12.3517
▁вытянуты	-12.3517
▁двор	-12.3517
▁23.12	-12.3518
.07.17	-12.3519
оказались	-12.3523
вышивка	-12.3523
▁присутств	-12.3525
▁прилетел	-12.3526
кажут	-12.3526
▁коробк	-12.3526
▁Обманул	-12.3527
▁боже	-12.3527
основн	-12.3528
▁сэкономил	-12.3528
▁колготкам	-12.3529
▁вещам	-12.353
сбор	-12.353
▁Барнаул	-12.353
▁жалоб	-12.3534
осто	-12.3535
оленки	-12.3536
▁назначен	-12.3537
аждый	-12.3537
▁24.10	-12.3537
▁наглы	-12.3537
▁друзья	-12.3539
ёшь	-12.3541
▁вежлив	-12.3541
▁ровны	-12.3542
▁условия	-12.3542
▁здоров	-12.3543
▁29.12	-12.3543
▁шкаф	-12.3543
▁глубок	-12.3544
▁обнаружен	-12.3544
▁домашни	-12.3544
▁недочёт	-12.3544
▁замеча	-12.3544
▁недочет	-12.3544
▁великолепна	-12.3544
▁объяснени	-12.3545
талии	-12.3545
▁лёгк	-12.3545
▁основно	-12.3546
▁заужен	-12.3546
▁проплешин	-12.3546
▁клас	-12.3546
Хотел	-12.3546
▁металл	-12.3548
▁гольф	-12.3548
▁люрекс	-12.355
▁6.12	-12.355
вёз	-12.355
тверстия	-12.355
пределенно	-12.355
блегает	-12.355
тсутствует	-12.3551
▁рыхл	-12.3551
▁привык	-12.3551
▁начёс	-12.3551
▁химическ	-12.3551
атерьял	-12.3551
▁27.11	-12.3552
▁ночь	-12.3552
▁попад	-12.3552
тяжё	-12.3552
▁обмен	-12.3553
ечь	-12.3554
ораздо	-12.3554
▁вкрапления	-12.3554
▁извинения	-12.3554
▁промока	-12.3554
▁МЕСЯЦ	-12.3554
▁прелест	-12.3554
▁ДОСТАВК	-12.3554
▁ОТВРАТИТЕЛЬНО	-12.3554
▁пришлю	-12.3554
▁игнориру	-12.3555
▁Дыр	-12.3555
▁услуг	-12.3555
▁ножниц	-12.3555
охотрон	-12.3555
▁мечта	-12.3555
▁сестр	-12.3555
▁Толст	-12.3556
▁хруст	-12.3556
▁порвать	-12.3556
кспресс	-12.3556
▁ПЕРЕ	-12.3556
9.08	-12.3556
▁ДЫР	-12.3556
ветровк	-12.3556
▁БРАК	-12.3556
требу	-12.3556
ггинсы	-12.3556
▁qui	-12.3556
▁НИКАК	-12.3557
/10007	-12.3557
▁black	-12.3557
▁ОКАЗАЛ	-12.3557
▁ПОСЛЕ	-12.3557
▁лодыжк	-12.3557
▁пупыр	-12.3557
▁халтур	-12.3557
eans	-12.3557
fore	-12.3557
Безобразие	-12.3557
бархатистая	-12.3557
глубин	-12.3557
интэтика	-12.3557
редполагаю	-12.3557
терпеть	-12.3557
точняйте	-12.3557
▁197082	-12.3557
▁Mail	-12.3557
▁PayPal	-12.3557
▁Perfect	-12.3557
▁blue	-12.3557
▁correct	-12.3557
▁friend	-12.3557
▁general	-12.3557
▁hope	-12.3557
▁know	-12.3557
▁normal	-12.3557
▁piece	-12.3557
▁protection	-12.3557
▁review	-12.3557
▁spots	-12.3557
▁stars	-12.3557
▁supplier	-12.3557
▁БЫСТРО	-12.3557
▁ВНИМАНИЕ	-12.3557
▁Вцелом	-12.3557
▁Девчонки	-12.3557
▁ИТОГ	-12.3557
▁Иваново	-12.3557
▁Идеальны	-12.3557
▁Камчатки	-12.3557
▁Камчатку	-12.3557
▁Комфортн	-12.3557
▁Кривые	-12.3557
▁ОГРОМНО	-12.3557
▁Огромные	-12.3557
▁ТУТ	-12.3557
▁Тоненькие	-12.3557
▁Тюмень	-12.3557
▁Удобный	-12.3557
▁ХЛОПОК	-12.3557
▁бежевое	-12.3557
▁бежевую	-12.3557
▁безформенная	-12.3557
▁беспоко	-12.3557
▁бойфренды	-12.3557
▁болотный	-12.3557
▁бумажк	-12.3557
▁влюблена	-12.3557
▁внатяг	-12.3557
▁волнует	-12.3557
▁вспомнил	-12.3557
▁вышивкой	-12.3557
▁главном	-12.3557
▁горлышк	-12.3557
▁двоякие	-12.3557
▁деформируется	-12.3557
▁дешевым	-12.3557
▁дешевых	-12.3557
▁документы	-12.3557
▁досадно	-12.3557
▁ежедневн	-12.3557
▁жаловаться	-12.3557
▁засунуть	-12.3557
▁затерялась	-12.3557
▁захотите	-12.3557
▁избавиться	-12.3557
▁инструкци	-12.3557
▁исправимо	-12.3557
▁катастрофа	-12.3557
▁клеёнка	-12.3557
▁клёвая	-12.3557
▁количества	-12.3557
▁кончились	-12.3557
▁крупную	-12.3557
▁крючком	-12.3557
▁леггинсами	-12.3557
▁лопнуло	-12.3557
▁мокрые	-12.3557
▁наклониться	-12.3557
▁напуском	-12.3557
▁нараспашку	-12.3557
▁наугад	-12.3557
▁небесно	-12.3557
▁недоволен	-12.3557
▁нелепая	-12.3557
▁непорядочный	-12.3557
▁несоответсв	-12.3557
▁носибельн	-12.3557
▁облегать	-12.3557
▁обувь	-12.3557
▁оверлочены	-12.3557
▁отвалятся	-12.3557
▁отмечу	-12.3557
▁относятся	-12.3557
▁отслуживалось	-12.3557
▁оформить	-12.3557
▁пайеток	-12.3557
▁перламутр	-12.3557
▁песня	-12.3557
▁плюшевый	-12.3557
▁поверьте	-12.3557
▁погрешности	-12.3557
▁подбирать	-12.3557
▁полнейший	-12.3557
▁полчаса	-12.3557
▁понервничать	-12.3557
▁потоньше	-12.3557
▁похабно	-12.3557
▁поясница	-12.3557
▁предупреждать	-12.3557
▁прежним	-12.3557
▁прикрыло	-12.3557
▁принцеп	-12.3557
▁пристраивать	-12.3557
▁проветривани	-12.3557
▁прогадали	-12.3557
▁продлевает	-12.3557
▁продукции	-12.3557
▁промежности	-12.3557
▁прослужат	-12.3557
▁просунуть	-12.3557
▁расцветкой	-12.3557
▁редкостная	-12.3557
▁ручками	-12.3557
▁салфет	-12.3557
▁сгодится	-12.3557
▁седло	-12.3557
▁сквозь	-12.3557
▁скотчем	-12.3557
▁слепые	-12.3557
▁снимаешь	-12.3557
▁специфический	-12.3557
▁спрятать	-12.3557
▁стесня	-12.3557
▁структур	-12.3557
▁суппер	-12.3557
▁сходств	-12.3557
▁таможню	-12.3557
▁товарищи	-12.3557
▁торчала	-12.3557
▁тянущаяся	-12.3557
▁удобнее	-12.3557
▁улыб	-12.3557
▁утеплителем	-12.3557
▁фотографировать	-12.3557
▁худенькой	-12.3557
▁четырёх	-12.3557
▁чехлы	-12.3557
▁шампань	-12.3557
▁шаровары	-12.3557
▁школы	-12.3557
▁этикеткой	-12.3557
▁январе	-12.3557
▁hood	-12.3557
▁Вопрос	-12.3557
▁ГРУДИ	-12.3557
▁Грязн	-12.3557
▁Ленинградск	-12.3557
▁Тулу	-12.3557
▁вдвое	-12.3557
▁добрый	-12.3557
▁жалость	-12.3557
▁жесткие	-12.3557
▁кофточкой	-12.3557
▁логистическ	-12.3557
▁ободран	-12.3557
▁правдивы	-12.3557
▁представител	-12.3557
▁сваливаются	-12.3557
▁секонд	-12.3557
▁скрины	-12.3557
▁стреч	-12.3557
▁Отслеживается	-12.3557
▁брошь	-12.3557
▁картине	-12.3557
▁неприличия	-12.3557
▁сошелся	-12.3557
▁сошлась	-12.3557
стоятельно	-12.3557
▁освещении	-12.3557
▁эмоции	-12.3557
очееень	-12.3557
▁Велика	-12.3557
▁детям	-12.3557
▁пригодна	-12.3557
▁стойка	-12.3557
▁улицы	-12.3557
▁успешно	-12.3557
▁хомут	-12.3557
▁Тульск	-12.3557
▁существенно	-12.3557
.05.2017	-12.3557
▁всячески	-12.3557
▁зеркал	-12.3557
▁использовал	-12.3557
▁пододеть	-12.3557
▁вернем	-12.3557
-113	-12.3557
▁ситец	-12.3557
mber	-12.3557
▁kind	-12.3557
▁ИМЕ	-12.3557
▁автомат	-12.3557
▁реглан	-12.3557
▁office	-12.3557
▁выцвел	-12.3557
▁удивлению	-12.3557
▁лампас	-12.3557
▁положенного	-12.3557
▁появляться	-12.3557
▁раздражение	-12.3557
▁красноярск	-12.3557
▁посылочку	-12.3557
▁lost	-12.3557
▁материл	-12.3557
▁коротышек	-12.3557
▁обменять	-12.3557
▁"3"	-12.3557
▁terrible	-12.3557
▁дождался	-12.3557
▁несуществующий	-12.3557
▁расползаются	-12.3557
▁безразмерный	-12.3557
▁двойны	-12.3557
▁предложение	-12.3557
▁узок	-12.3557
▁XXS	-12.3557
▁погоды	-12.3557
▁пробовать	-12.3557
▁quickly	-12.3557
▁пойдешь	-12.3557
▁ночнушки	-12.3557
▁посылочка	-12.3557
зюминк	-12.3557
▁происходит	-12.3557
▁arrived	-12.3557
▁Псков	-12.3557
▁планирую	-12.3557
▁прилипают	-12.3557
Полувер	-12.3557
▁24.11	-12.3557
▁described	-12.3557
▁идиот	-12.3557
▁убираются	-12.3557
▁предупредить	-12.3557
▁рекомендуется	-12.3557
▁детскую	-12.3557
▁корсет	-12.3557
▁находилась	-12.3557
▁просвечивающий	-12.3557
▁треснул	-12.3557
▁утеплением	-12.3557
▁подешел	-12.3557
▁половинка	-12.3557
кароче	-12.3557
сторонний	-12.3557
▁перекручивается	-12.3557
▁Отношени	-12.3557
▁натуре	-12.3557
▁снимала	-12.3557
▁ремешком	-12.3557
▁защищ	-12.3557
▁27.12	-12.3557
▁накладн	-12.3557
▁дневно	-12.3557
▁18.09	-12.3557
▁образце	-12.3557
▁ответив	-12.3557
▁бордовые	-12.3557
▁Капри	-12.3557
▁распустится	-12.3557
▁поместиться	-12.3557
▁пудрил	-12.3557
Требу	-12.3557
▁лямочки	-12.3557
▁сойдут	-12.3557
▁КУРТКУ	-12.3557
▁5-6	-12.3557
▁длительно	-12.3557
▁Сказал	-12.3557
▁бордовая	-12.3557
▁заднице	-12.3557
▁безрукавка	-12.3557
▁ДРУГОЙ	-12.3557
▁матовая	-12.3557
▁разумеется	-12.3557
Потерянн	-12.3557
▁мешка	-12.3557
▁15.09	-12.3557
▁чужи	-12.3557
ince	-12.3557
▁похудела	-12.3557
▁распустились	-12.3557
▁удалить	-12.3557
▁включил	-12.3557
▁концы	-12.3557
▁утепления	-12.3557
▁Ремеш	-12.3557
ike	-12.3557
▁наглости	-12.3557
▁ленточка	-12.3558
▁простенькая	-12.3558
▁распуститься	-12.3558
/104	-12.3558
Груди	-12.3558
▁мягким	-12.3558
▁дикая	-12.3558
▁блёклый	-12.3558
▁best	-12.3558
▁дюймовочку	-12.3558
▁полосочки	-12.3558
▁Радост	-12.3558
▁шьёт	-12.3558
живался	-12.3558
▁светлых	-12.3558
▁Получилось	-12.3558
▁выгоревший	-12.3558
▁поросячий	-12.3558
▁вскрытия	-12.3558
▁расстегивается	-12.3558
▁сломался	-12.3558
▁произошла	-12.3558
одойдут	-12.3558
▁Синие	-12.3558
▁произведен	-12.3558
▁плед	-12.3558
черк	-12.3558
▁похудею	-12.3558
▁Китайская	-12.3558
▁ленточки	-12.3558
▁пальтишко	-12.3558
▁перезаказывать	-12.3558
▁взрослых	-12.3558
▁серых	-12.3558
▁зауженные	-12.3558
▁opened	-12.3558
▁укороченный	-12.3558
▁косточку	-12.3559
▁вываливается	-12.3559
▁обтягивающие	-12.3559
rdered	-12.3559
▁обещанного	-12.3559
▁делу	-12.3559
▁Длинные	-12.3559
▁pay	-12.3559
▁ЦЕН	-12.3559
▁ждёт	-12.3559
▁насыщеный	-12.3559
▁Российская	-12.3559
▁сломалась	-12.3559
▁30.08	-12.3559
▁желтые	-12.3559
▁прострочили	-12.3559
▁чужого	-12.3559
ворачиваются	-12.3559
▁кипе	-12.3559
▁потрясающий	-12.3559
▁разобраться	-12.3559
▁зелёные	-12.3559
▁называемы	-12.3559
▁эффектнее	-12.3559
▁едет	-12.3559
▁порвалось	-12.3559
▁СВОИ	-12.3559
▁БЫЛО	-12.3559
▁мечтала	-12.3559
▁привыкла	-12.3559
нчо	-12.356
▁оторванной	-12.356
▁Выкинула	-12.356
▁вытягиваются	-12.356
▁старых	-12.356
▁соответ	-12.356
▁каблуками	-12.356
▁одевания	-12.356
▁разнообразия	-12.356
▁ощутимо	-12.356
TI	-12.356
▁вставлен	-12.356
▁мурыжил	-12.356
▁понимать	-12.356
▁толстенькая	-12.356
▁вискозу	-12.3561
▁удалил	-12.3561
▁модный	-12.3561
▁Боков	-12.3561
▁Пензы	-12.3561
▁затраты	-12.3561
▁знакомых	-12.3561
▁пролазит	-12.3561
▁разрешился	-12.3561
▁Удобно	-12.3561
▁норка	-12.3561
правляется	-12.3561
▁чутка	-12.3561
▁нормуль	-12.3562
▁саше	-12.3562
▁перебор	-12.3562
▁произвели	-12.3562
▁Оказывается	-12.3562
▁показаться	-12.3562
▁Доехал	-12.3562
▁старые	-12.3562
▁сушить	-12.3562
▁пахла	-12.3562
▁гарантия	-12.3562
▁обрадовало	-12.3562
▁спасло	-12.3562
Пишут	-12.3563
▁осторожно	-12.3563
▁базовая	-12.3563
▁натянута	-12.3563
▁закатываться	-12.3563
▁высоту	-12.3563
▁Тали	-12.3563
клеян	-12.3563
убон	-12.3564
▁расходы	-12.3564
▁требуется	-12.3564
▁мятно	-12.3564
▁ordering	-12.3564
▁открывался	-12.3564
▁Одноразов	-12.3564
▁Привет	-12.3565
▁резиной	-12.3565
▁глубокая	-12.3565
▁1300	-12.3565
▁мягонькая	-12.3565
▁пушок	-12.3565
▁позиции	-12.3565
▁выкройки	-12.3565
Продовц	-12.3565
ируется	-12.3565
▁200%	-12.3565
▁переживать	-12.3565
▁опустить	-12.3565
▁нарядная	-12.3565
гвоздики	-12.3565
▁ПОЛУЧЕН	-12.3565
▁разрыв	-12.3566
▁гольфы	-12.3566
▁Уши	-12.3566
▁Единственн	-12.3566
▁невнимательный	-12.3566
▁флисовая	-12.3566
▁перм	-12.3566
▁российского	-12.3566
▁обратилась	-12.3566
▁отпаривать	-12.3566
▁Линяет	-12.3566
▁Сомневаюсь	-12.3566
▁облигает	-12.3566
▁ориентироваться	-12.3566
▁расцветке	-12.3566
▁широченная	-12.3566
▁бордового	-12.3566
▁суть	-12.3566
▁Лифчик	-12.3567
▁химическим	-12.3567
ейка	-12.3567
▁вытягивается	-12.3567
▁Легкий	-12.3567
▁прилагается	-12.3567
▁взят	-12.3568
▁Клевая	-12.3568
корман	-12.3568
▁любез	-12.3568
▁признался	-12.3568
▁90%	-12.3568
▁удивля	-12.3568
▁Одевать	-12.3568
▁широкую	-12.3568
▁обработке	-12.3568
▁сумме	-12.3568
▁выворачивается	-12.3568
▁новое	-12.3568
▁растроина	-12.3568
▁клиенту	-12.3568
▁порядком	-12.3569
▁платка	-12.3569
▁Широкая	-12.3569
▁заказывая	-12.3569
очен	-12.3569
▁замены	-12.3569
▁сопля	-12.3569
▁обнаружено	-12.3569
▁неровности	-12.3569
▁Слав	-12.3569
▁НЕГО	-12.357
▁уважаемый	-12.357
▁1400	-12.357
▁пояском	-12.357
▁спортивный	-12.357
▁ветровочка	-12.357
▁вкладыш	-12.357
▁попались	-12.357
▁жидкий	-12.357
▁тонах	-12.357
▁щетк	-12.3571
▁Шубка	-12.3571
▁начнут	-12.3571
▁каблуком	-12.3571
▁даром	-12.3571
▁сантиметром	-12.3571
▁путаница	-12.3571
▁бегемота	-12.3571
▁застёжка	-12.3571
▁нутри	-12.3572
▁ужастно	-12.3572
▁полотна	-12.3573
▁такова	-12.3573
▁прибытии	-12.3573
▁продолжительно	-12.3573
▁бабки	-12.3574
▁задержки	-12.3574
▁широким	-12.3574
▁читает	-12.3574
▁идеале	-12.3574
ID	-12.3574
▁косяками	-12.3575
забрала	-12.3575
▁отгладить	-12.3575
▁сползать	-12.3575
▁пуговицей	-12.3576
▁шьет	-12.3576
▁портнихе	-12.3576
▁оправдан	-12.3577
▁колет	-12.3577
▁слоем	-12.3577
▁отказано	-12.3578
▁попалось	-12.3578
▁полосами	-12.3578
▁280	-12.3578
▁Жела	-12.3578
Ворс	-12.3578
▁Благодар	-12.3578
▁вышита	-12.3578
▁выходят	-12.3578
▁следки	-12.3579
▁блузу	-12.3579
▁распродажу	-12.3579
лазиет	-12.3579
значительный	-12.3579
▁застегивать	-12.3579
▁указания	-12.358
▁выпуск	-12.358
▁передумала	-12.358
брош	-12.358
▁потертости	-12.358
▁шнуровки	-12.358
▁подряд	-12.3581
▁поленяла	-12.3581
107	-12.3581
▁рамер	-12.3581
▁Владимира	-12.3581
▁сочетани	-12.3582
▁женщинам	-12.3583
▁вырезали	-12.3583
41	-12.3583
▁отрицательные	-12.3583
▁окуратно	-12.3583
▁mail	-12.3583
▁Информаци	-12.3583
▁Разочарованна	-12.3583
▁Утеплител	-12.3583
▁консультировал	-12.3583
▁нейтрально	-12.3583
▁кончилось	-12.3583
▁вырезана	-12.3584
коду	-12.3584
▁паху	-12.3584
▁1800	-12.3584
▁соотвествует	-12.3584
▁Курьером	-12.3585
▁настоял	-12.3585
▁Ровно	-12.3585
▁плана	-12.3586
▁сэкономили	-12.3586
▁place	-12.3586
▁лица	-12.3587
▁результатам	-12.3587
▁свободновато	-12.3588
берёт	-12.3589
▁УЖАСНОЕ	-12.3589
▁общ	-12.359
▁потянет	-12.359
▁times	-12.359
▁приятных	-12.359
▁приталенное	-12.359
▁задний	-12.359
▁Норильска	-12.359
▁бусинки	-12.359
▁гляди	-12.3591
▁широченные	-12.3591
▁бабушке	-12.3591
▁Странно	-12.3591
▁звонили	-12.3591
▁бля	-12.3591
▁системе	-12.3592
чарова	-12.3592
▁утяжки	-12.3592
▁соответствовало	-12.3592
▁треугольники	-12.3592
▁застегнуться	-12.3593
атин	-12.3593
▁связано	-12.3593
▁зелёным	-12.3593
▁продала	-12.3594
▁126	-12.3595
▁185	-12.3595
▁человеком	-12.3595
▁трикотажное	-12.3596
▁любимы	-12.3596
метра	-12.3597
▁открывали	-12.3598
неприятно	-12.3598
▁измен	-12.3598
Жакет	-12.3599
▁Высоки	-12.3599
▁17-2	-12.3599
▁вручена	-12.36
сяца	-12.36
▁заклепки	-12.36
▁нарушена	-12.36
▁14-23	-12.3601
▁стоять	-12.3603
▁ушей	-12.3604
▁поясок	-12.3604
▁никакие	-12.3605
▁кошмарный	-12.3606
красилась	-12.3606
бегать	-12.3607
▁верные	-12.3608
▁волосами	-12.3609
▁Барнаула	-12.361
▁кэшбэка	-12.361
▁окантовка	-12.361
▁металлическ	-12.361
отличное	-12.361
чей	-12.3611
▁хим	-12.3612
▁замене	-12.3612
клеить	-12.3613
▁необработанные	-12.3613
▁плотными	-12.3613
▁Хб	-12.3613
▁190	-12.3614
▁бантики	-12.3614
▁разочарованная	-12.3614
звонить	-12.3615
▁поставщику	-12.3615
▁хот	-12.3616
свобо	-12.3616
учить	-12.3617
валиваться	-12.3618
▁НИКОГДА	-12.3618
▁Коротковато	-12.3619
▁отгрузк	-12.3619
▁погладить	-12.362
▁треугольника	-12.362
▁стройной	-12.3621
▁Белгорода	-12.3621
▁меряла	-12.3621
▁свисает	-12.3623
▁уехала	-12.3629
▁спеш	-12.3629
▁исправила	-12.363
▁общительн	-12.363
▁добротны	-12.363
▁скроена	-12.3631
▁доказывал	-12.3633
▁трикотажные	-12.3633
▁радость	-12.3635
▁колят	-12.3637
▁продолжал	-12.3638
▁трекномер	-12.3639
▁Итого	-12.364
коричневы	-12.364
▁остальн	-12.3641
вязать	-12.3642
▁ряду	-12.3642
▁петелька	-12.3644
▁pleas	-12.3647
hang	-12.3649
▁занятия	-12.3649
▁Ниже	-12.3653
▁цветочек	-12.3654
▁открытая	-12.3654
▁отказа	-12.3658
▁Lo	-12.3658
▁малость	-12.3659
▁карманом	-12.3659
работан	-12.366
▁привлеч	-12.3662
▁порадовали	-12.3662
егистрируйтесь	-12.3665
стекает	-12.3666
хуже	-12.3666
▁затягивать	-12.3666
▁существенны	-12.3667
▁растрои	-12.3668
▁простовато	-12.3668
▁тесновата	-12.3669
КИЙ	-12.367
▁полосках	-12.3674
▁отпра	-12.3675
7-8	-12.3679
▁фоткам	-12.368
личная	-12.3681
▁темная	-12.3682
▁дырах	-12.3685
▁повязка	-12.3687
красилось	-12.3689
[...]
